memory_initialization_radix=16;
memory_initialization_vector=
0016,
FFFB,
0005,
FFFD,
0018,
000E,
0004,
0000,
0009,
0011,
FFFB,
FFEC,
0012,
FFE4,
FFF6,
0011,
FFF2,
0004,
0009,
FFE8,
FFF1,
0000,
FFF0,
FFE6,
000F,
FFEC,
0002,
FFE5,
000A,
0015,
FFFC,
001B,
FFEC,
0002,
FFE6,
FFFD,
0006,
0006,
FFF7,
0009,
0017,
0007,
001C,
FFF2,
FFED,
0016,
0014,
0007,
000D,
0016,
FFFF,
FFFB,
FFEA,
000C,
FFDB,
FFFC,
000A,
0001,
001D,
001F,
FFF0,
FFFA,
0021,
FFED,
0010,
000C,
000B,
FFEE,
FFFF,
FFF6,
FFFD,
FFF7,
000B,
001F,
001B,
FFFF,
0025,
000F,
0017,
0008,
0015,
FFE8,
FFFE,
FFEE,
FFF9,
FFE8,
FFFE,
0015,
FFED,
FFFB,
000C,
0001,
FFF1,
000F,
0005,
000B,
0019,
FFF0,
000C,
0002,
FFEE,
0007,
FFF4,
FFE8,
0005,
0007,
0015,
0006,
0004,
0004,
0007,
0007,
FFF3,
FFFF,
FFDD,
0001,
0010,
000A,
FFFF,
FFEF,
FFF7,
000C,
000E,
FFFA,
FFE6,
0001,
0001,
000B,
0004,
0002,
FFF6,
FFE5,
FFDB,
000B,
000F,
000F,
FFF8,
000A,
FFFC,
000B,
FFFF,
000D,
FFFB,
FFF8,
FFF8,
001E,
0003,
FFFE,
0011,
0009,
0002,
000C,
FFFD,
FFFB,
FFF4,
0004,
0004,
0005,
0008,
0022,
000A,
FFFD,
FFF7,
0001,
FFF2,
000F,
FFEA,
0003,
0018,
FFF2,
FFEE,
FFEC,
FFF8,
0006,
0001,
001F,
0006,
000E,
FFFE,
FFFE,
0003,
0010,
0002,
FFF5,
FFFC,
FFF6,
FFF2,
000F,
FFF7,
FFF4,
000A,
000D,
0023,
000E,
000A,
FFFE,
0012,
0002,
FFF3,
FFF7,
0004,
0007,
000C,
FFF7,
FFFD,
FFFE,
000B,
FFFA,
0000,
FFF9,
0005,
0015,
0009,
000D,
FFF5,
FFFD,
000B,
FFF8,
FFF3,
0001,
0004,
FFFF,
FFFF,
0006,
FFEF,
0009,
0000,
FFFC,
0000,
000D,
0000,
FFF6,
0000,
0014,
000A,
000C,
FFEC,
FFF9,
FFFA,
FFEA,
FFFF,
FFFF,
0008,
FFF2,
000B,
0003,
FFFA,
FFFA,
000A,
0011,
FFF9,
FFF6,
FFFE,
0005,
FFFF,
FFF5,
FFF8,
000B,
FFFB,
FFFC,
000C,
FFFA,
FFFC,
0015,
FFF9,
0008,
0005,
FFF6,
0006,
000A,
FFFD,
000D,
FFF2,
0001,
FFF4,
0005,
0002,
FFF6,
000E,
FFF6,
FFF6,
0002,
FFF3,
0006,
FFFE,
0004,
FFF6,
0025,
FFFB,
0004,
FFFA,
FFEF,
FFFD,
0001,
FFFC,
0006,
0001,
FFE7,
FFEB,
FFF6,
0002,
0002,
000D,
0000,
0000,
FFFA,
FFF6,
FFF9,
FFFD,
0002,
FFF3,
FFE4,
FFC8,
0006,
0003,
0023,
0003,
FFFC,
0002,
FFFA,
0004,
FFEF,
FFCD,
FFF8,
0001,
0009,
FFF6,
0006,
0012,
FFFF,
FFFD,
FFF8,
0004,
0014,
0007,
0037,
FFFC,
FFFA,
0003,
0010,
FFEE,
0009,
0008,
0004,
FFDA,
0005,
000B,
000B,
0024,
FFF4,
0000,
0001,
0001,
FFFA,
FFFC,
000E,
0005,
FFF3,
FFFE,
0006,
0003,
0002,
FFFC,
FFFE,
FFFC,
0000,
FFFD,
0006,
FFF6,
FFEA,
FFFF,
FFF9,
0001,
000B,
FFFD,
FFF5,
0001,
000E,
0002,
000D,
FFFA,
0001,
000B,
FFF4,
0005,
FFFE,
000A,
FFF7,
0002,
FFFD,
FFFF,
FFEF,
0000,
0001,
0000,
FFFF,
FFFE,
0000,
FFFE,
FFFE,
0006,
FFEE,
FFF8,
0005,
FFF8,
000C,
FFFD,
FFFF,
0002,
FFFD,
FFEE,
FFFF,
FFFD,
0000,
FFFC,
FFED,
FFF6,
000E,
0002,
0000,
FFFC,
000F,
0000,
FFFD,
FFFF,
FFF1,
0005,
FFFB,
FFF5,
FFFE,
FFF9,
FFF6,
0007,
FFFD,
FFD3,
FFD9,
0001,
0001,
FFFE,
0000,
FFF6,
0001,
0002,
FFF9,
FFFD,
0017,
0000,
FFFE,
0000,
0002,
0000,
FFFC,
FFF8,
0004,
FFFC,
0013,
FFFD,
FFFA,
FFFE,
0007,
FFFF,
FFFD,
FFFC,
0001,
FFFB,
0004,
FFFD,
0003,
FFFA,
FFFB,
0003,
FFFE,
FFFA,
0000,
FFFC,
FFFC,
0000,
0002,
FFF1,
FFF9,
FFFF,
FFFD,
001F,
0000,
FFFF,
0000,
0003,
0003,
FFFD,
FFFA,
0003,
FFFB,
0002,
FFFE,
0001,
FFFE,
0000,
0023,
FFFF,
FFFC,
FFFB,
0001,
FFF9,
FFF9,
0005,
FFFE,
0008,
0010,
FFFE,
FFFA,
0006,
FFFC,
0006,
FFFE,
FFF2,
FFFD,
FFFF,
0001,
FFFB,
FFFE,
FFF6,
FFFE,
FFFE,
FFFA,
FFFF,
0004,
FFFB,
0012,
FFF9,
FFF7,
0000,
0049,
FFFD,
0001,
000A,
0000,
FFEB,
0004,
FFFB,
FFFC,
0000,
FFFA,
0000,
FFFD,
0000,
0003,
0000,
000B,
FFF9,
FFFE,
0000,
FFFB,
FFFD,
0000,
0002,
FFF1,
FFFC,
FFF5,
FFFD,
FFFB,
FFFE,
000E,
FFF2,
FFFA,
0003,
0005,
0016,
0000,
000C,
001B,
FFEF,
0007,
0002,
FFFA,
FFFE,
0002,
FFF6,
0010,
0001,
0015,
FFEE,
0013,
FFEB,
FFFB,
0005,
FFE4,
0010,
FFEA,
FFF8,
0022,
FFF0,
FFFF,
FFEB,
FFFC,
0000,
FFEC,
FFF1,
FFFC,
0011,
000F,
000D,
0022,
FFFF,
FFFE,
FFEB,
FFF0,
0003,
FFFB,
0013,
FFDE,
FFF8,
FFF0,
FFF9,
FFFE,
0008,
FFEF,
FFF7,
0007,
FFEA,
FFFD,
FFE0,
FFF4,
000B,
000D,
FFF7,
0006,
0004,
000E,
0006,
FFEA,
FFE6,
0019,
0007,
000C,
0001,
FFF7,
000D,
0010,
0011,
FFFD,
FFF7,
FFFB,
000A,
0007,
0006,
FFFF,
FFFB,
0002,
0000,
0009,
FFEE,
0003,
0000,
0008,
FFF9,
FFF4,
FFF9,
FFF9,
0022,
FFF9,
0003,
FFFE,
0005,
000D,
0004,
FFF5,
0009,
0000,
FFFA,
FFF8,
0009,
0003,
001D,
0002,
0009,
0002,
001A,
0009,
0007,
0008,
0012,
0006,
0023,
FFF0,
0001,
000C,
000E,
000B,
FFFF,
FFFF,
FFF4,
FFFC,
FFFA,
0013,
FFF2,
FFF7,
FFF9,
FFF4,
0002,
FFF2,
FFF9,
0007,
0007,
0017,
000E,
000E,
FFF9,
FFF6,
FFF3,
0000,
FFED,
0023,
0012,
000E,
FFF6,
FFE3,
001A,
000A,
FFF7,
0005,
FFF1,
FFF9,
FFFE,
0006,
000B,
0015,
0000,
0006,
FFF6,
FFFF,
FFFE,
FFE6,
FFF1,
000C,
0013,
FFF5,
001E,
FFEE,
FFF4,
FFFF,
0000,
000D,
0025,
FFFF,
FFF4,
002A,
FFF4,
FFF1,
0018,
FFF0,
FFFD,
FFF6,
FFF8,
0018,
FFF8,
FFF1,
FFFE,
001C,
FFFF,
FFF6,
0005,
0003,
FFE9,
0006,
000B,
FFEA,
0004,
FFED,
FFFF,
0004,
000E,
FFEF,
FFF8,
FFF7,
0007,
0015,
FFFE,
FFF1,
FFD9,
FFF7,
0031,
FFF9,
000D,
FFE6,
0012,
001B,
0004,
FFE5,
FFF4,
FFF4,
FFFE,
0010,
FFF9,
001D,
FFEA,
FFF0,
000C,
000F,
000C,
000F,
FFF1,
0009,
000F,
0003,
0006,
0015,
FFFD,
FFFD,
0008,
0009,
FFE3,
FFF3,
000C,
000F,
000A,
FFF8,
000F,
0005,
0000,
FFF9,
FFF8,
0004,
FFFA,
0022,
FFF7,
FFF7,
FFF4,
0013,
FFF1,
0017,
0007,
0011,
FFEC,
0009,
FFF3,
0007,
0006,
FFFB,
0001,
000B,
000A,
FFF6,
FFE1,
0003,
000B,
0006,
0025,
0015,
FFEE,
000D,
0010,
FFF7,
0003,
FFF5,
000A,
0002,
0003,
0016,
0000,
FFF1,
0002,
FFF2,
FFF5,
0005,
0006,
000F,
FFF5,
FFE8,
FFE0,
0012,
FFFB,
FFFA,
001B,
FFFB,
000E,
FFF6,
000F,
FFE7,
FFF9,
0005,
0000,
0000,
0027,
FFFC,
0008,
FFCF,
FFFC,
000E,
0002,
001A,
FFF5,
0005,
0006,
FFEC,
FFFB,
FFF7,
FFF1,
000E,
0008,
0018,
000F,
FFF8,
FFEC,
0010,
FFFB,
FFEB,
FFDE,
0001,
001C,
FFF8,
FFFF,
FFFF,
FFED,
0018,
FFFA,
FFFD,
0003,
0004,
FFFF,
FFF8,
FFF9,
FFF7,
FFF5,
FFF7,
FFF3,
FFF7,
FFF7,
FFFA,
0004,
FFED,
0000,
FFFB,
FFFD,
FFF9,
FFDC,
FFF6,
0018,
000B,
000A,
0001,
FFEB,
FFF9,
0001,
FFFC,
FFF5,
0007,
0006,
0015,
0005,
0001,
0000,
0025,
FFFB,
0004,
FFF4,
FFFD,
FFF9,
FFFF,
0001,
FFF9,
000D,
FFF9,
FFF7,
FFF4,
FFFE,
FFF9,
0018,
FFFD,
FFF9,
0006,
FFFF,
FFF0,
FFF0,
0012,
0002,
0019,
0016,
0014,
0003,
0006,
FFF4,
FFF9,
FFEE,
FFF1,
FFF3,
0007,
000B,
0018,
0006,
FFDD,
0000,
FFF1,
FFE0,
FFFE,
0012,
FFE6,
0003,
0009,
000D,
FFF6,
0015,
000D,
FFE1,
FFEA,
FFEF,
FFFA,
0023,
FFFB,
001A,
0006,
FFFF,
0004,
FFF8,
000F,
FFFD,
000D,
0013,
002E,
000F,
0009,
FFF4,
000E,
000E,
FFF2,
FFE2,
FFDD,
002C,
000E,
000F,
FFD4,
FFF6,
0007,
FFFA,
FFF5,
0014,
FFFE,
0013,
000F,
FFDE,
FFFE,
0016,
0018,
0022,
001A,
FFFE,
0000,
FFF9,
000E,
FFFD,
000C,
0047,
0002,
FFF1,
FFCD,
FFFB,
0002,
FFEF,
FFFA,
FFF2,
FFFC,
FFEF,
FFDF,
0004,
0001,
FFFD,
FFFA,
0018,
FFED,
FFFE,
0019,
000D,
0003,
0002,
0002,
0059,
FFFA,
000B,
FFE3,
000A,
000C,
FFF9,
0020,
FFF9,
0001,
FFDE,
FFFF,
FFD2,
FFFA,
0008,
0028,
0007,
FFF7,
FFE9,
FFF1,
FFF2,
FFE8,
FFF0,
FFED,
0018,
FFD4,
0000,
0000,
FFFA,
0003,
000D,
FFF5,
FFFF,
0002,
0009,
0004,
0003,
FFF1,
FFEB,
FFE3,
FFFA,
FFFF,
0018,
FFFC,
FFE8,
0007,
FFFB,
0009,
001D,
FFF3,
FFFC,
FFF1,
FFCD,
000B,
000C,
000B,
FFF6,
0001,
000E,
000C,
0005,
000B,
000E,
FFFB,
0004,
FFEC,
FFE9,
000D,
0000,
FFF5,
FFFC,
001A,
FFFA,
0003,
FFF3,
000E,
0005,
0022,
000F,
FFFF,
FFE7,
FFE0,
0009,
FFF7,
0009,
0007,
FFFA,
000F,
FFF6,
0006,
0009,
FFFD,
0022,
FFFC,
0018,
000A,
000F,
000D,
001C,
0006,
FFFF,
0004,
FFFC,
FFF7,
FFFB,
FFFC,
0002,
0002,
0001,
FFFF,
0003,
0006,
0021,
FFFD,
FFEF,
FFFC,
FFFC,
0004,
FFFF,
FFFF,
FFF8,
000D,
0006,
000D,
0002,
FFFD,
FFFC,
0001,
0002,
FFE9,
000B,
FFFE,
0006,
FFFD,
FFDD,
FFFA,
0005,
001B,
FFF7,
FFDB,
FFF1,
001C,
000A,
0002,
0002,
0019,
FFF8,
FFF5,
FFF7,
0002,
000F,
FFEB,
0003,
FFF6,
FFF8,
FFF9,
0014,
0015,
FFF9,
FFFD,
FFFF,
0007,
FFF1,
0002,
0002,
0000,
FFED,
0008,
FFFB,
FFD6,
0008,
0003,
0015,
000D,
0004,
0008,
0014,
FFF0,
FFFE,
0001,
FFF1,
FFDF,
0002,
FFE8,
FFEE,
0025,
0005,
0010,
FFFB,
FFEC,
000E,
FFFF,
FFF9,
FFF0,
0010,
FFF5,
FFFC,
FFF9,
0005,
0005,
FFF7,
0008,
FFFB,
FFE9,
0004,
0007,
FFF0,
000D,
FFFF,
0005,
0004,
0005,
FFFB,
FFFA,
FFDD,
001F,
000D,
0007,
FFFE,
FFFE,
FFFF,
FFFE,
FFF4,
FFFD,
0002,
000A,
0002,
0001,
FFFB,
FFF2,
0000,
0000,
0005,
FFFF,
0015,
FFFD,
FFE3,
FFF9,
0000,
0007,
000E,
FFFB,
0008,
0008,
FFF8,
0000,
FFF7,
FFF9,
0002,
001C,
0003,
0024,
0007,
0018,
0010,
000C,
000A,
000D,
0002,
FFF8,
0002,
0002,
FFDB,
FFFC,
0009,
0013,
FFF5,
000B,
0010,
FFF4,
FFF3,
0004,
0004,
0000,
0004,
0003,
FFF6,
FFF7,
FFFF,
0004,
FFFE,
FFFC,
0000,
FFFE,
0002,
0001,
000D,
FFFE,
0012,
FFFE,
0001,
0006,
FFFF,
0004,
0000,
0000,
0003,
0000,
0001,
0001,
0000,
FFF7,
FFF9,
000E,
0002,
0000,
FFFA,
0003,
FFFF,
FFFE,
0000,
000A,
0006,
000F,
0002,
0000,
FFFF,
FFFE,
0002,
FFFF,
002B,
0019,
0001,
0002,
0010,
0004,
FFFD,
FFFD,
0001,
0015,
FFFD,
FFF5,
0002,
000C,
0003,
0001,
0001,
FFFA,
FFF2,
FFFE,
FFFA,
0009,
FFF4,
000F,
FFFF,
FFF6,
0001,
0000,
FFFF,
000B,
0005,
0002,
0001,
0000,
FFFC,
FFFC,
0001,
0003,
FFFC,
0000,
0000,
000E,
0002,
0005,
FFFB,
0008,
0000,
0002,
0006,
FFFC,
FFFC,
0003,
000F,
FFFF,
0000,
FFFC,
0002,
0001,
0001,
0008,
000A,
FFFF,
0004,
FFBD,
FFFE,
FFF0,
0003,
0001,
FFFF,
000B,
FFE3,
0000,
0003,
0000,
FFFF,
0002,
0002,
FFFF,
FFFE,
0002,
000E,
0001,
FFFB,
0001,
FFF8,
0002,
FFFC,
0008,
0002,
FFFD,
0002,
0009,
FFFC,
0003,
FFFD,
0000,
FFFF,
FFD2,
0008,
0003,
0006,
0005,
FFFB,
0003,
0000,
0005,
000E,
FFFA,
FFFC,
0000,
FFFF,
0002,
FFFF,
0003,
FFFF,
0002,
FFFD,
FFFF,
FFFE,
0001,
FFFE,
000D,
FFFD,
0003,
0007,
0001,
0000,
FFEA,
0008,
0000,
0001,
0009,
FFE0,
0001,
FFF2,
FFF3,
0016,
0002,
0001,
FFFC,
0002,
FFFE,
FFEE,
0004,
FFFB,
000C,
0001,
0004,
FFF2,
FFFC,
0004,
0001,
0001,
0001,
FFFF,
FFFD,
0000,
FFFF,
0012,
0009,
001C,
FFFF,
001E,
FFF6,
FFFC,
0009,
0002,
FFFD,
0003,
0001,
0002,
FFFE,
FFDF,
FFF5,
FFFC,
0009,
0001,
0002,
FFF1,
0004,
0001,
0002,
0000,
000E,
0003,
0009,
FFFF,
0002,
0000,
FFF2,
FFF9,
0002,
0005,
FFF5,
0000,
0003,
FFF6,
0001,
000A,
0004,
FFFD,
000C,
FFFF,
FFF8,
0009,
FFF8,
FFFC,
0000,
0001,
FFEB,
FFFF,
0000,
0001,
FFED,
0000,
0018,
FFFF,
0034,
0005,
0000,
0007,
0000,
FFF9,
FFFD,
0001,
FFFF,
FFFF,
FFFB,
0003,
FFFB,
FFF8,
000F,
FFFE,
0016,
0005,
0004,
FFFB,
FFE9,
0000,
0002,
FFFE,
FFFE,
FFFC,
FFFE,
FFF0,
FFF5,
0001,
FFF9,
FFFF,
FFFD,
FFFF,
000F,
0004,
0006,
FFEB,
FFFF,
FFFE,
FFF8,
0005,
0003,
0000,
FFF7,
FFF2,
0000,
000D,
000B,
FFFE,
FFF9,
0001,
FFFC,
FFFE,
0003,
FFFD,
0000,
FFFB,
FFFE,
0003,
0005,
FFF6,
FFFF,
FFFF,
0000,
FFFF,
0004,
0004,
FFF0,
FFF9,
FFFE,
0006,
FFFE,
0010,
0002,
0002,
0004,
0002,
0000,
0004,
000A,
001F,
FFFE,
FFFB,
0002,
0000,
FFFC,
FFFD,
0014,
0005,
FFFF,
FFFD,
0006,
0000,
0004,
0001,
FFF8,
FFFE,
0000,
FFFE,
FFF8,
FFF7,
0000,
0000,
0000,
0003,
000B,
0003,
FFFE,
FFFC,
FFEC,
FFF7,
0003,
FFF7,
FFFA,
0003,
0003,
0006,
0005,
FFC5,
FFF3,
FFFD,
FFF9,
0005,
FFFC,
FFFC,
001E,
FFFA,
0007,
FFFE,
FFF0,
FFD3,
0000,
0004,
0013,
FFF2,
000C,
FFEF,
0012,
FFE7,
FFF0,
FFF9,
0005,
FFE1,
FFF0,
0008,
FFFD,
FFF1,
FFEE,
001E,
0010,
0013,
FFF9,
000B,
0035,
0001,
FFF3,
FFF9,
000C,
0009,
FFFD,
FFFB,
0000,
FFFC,
FFF6,
FFED,
FFE4,
0000,
000B,
000C,
000B,
FFEA,
0008,
0033,
FFFB,
FFFD,
0000,
0001,
001B,
0009,
FFF6,
0004,
0000,
FFF8,
FFE0,
0013,
0005,
FFF7,
0001,
FFFA,
0013,
0007,
FFFF,
FFE1,
FFF8,
0008,
0025,
FFEC,
FFF7,
0002,
FFFC,
001A,
0005,
0003,
0006,
0018,
FFE9,
FFF9,
FFFB,
FFE7,
FFF4,
FFEB,
0003,
0007,
FFFB,
001C,
0023,
FFF2,
FFF2,
0015,
0006,
000B,
000B,
FFF4,
000C,
0003,
0008,
0017,
FFFC,
FFCD,
0002,
0005,
FFF0,
FFF6,
0007,
0009,
0003,
0000,
0012,
FFCB,
FFFA,
0006,
FFF7,
0001,
FFFC,
FFE0,
FFFE,
0003,
FFE3,
000B,
0004,
FFFD,
FFF7,
000C,
FFFD,
FFF5,
0011,
FFEA,
000A,
0011,
FFFA,
001C,
0013,
FFF9,
FFFE,
000F,
FFFB,
0002,
000C,
FFF4,
FFFC,
0003,
FFEB,
000C,
FFF1,
0022,
000B,
FFFC,
FFF5,
000E,
FFCD,
FFFB,
FFFB,
0010,
FFEF,
0002,
0006,
0003,
FFFD,
FFFC,
0024,
0002,
FFED,
0008,
000F,
FFF0,
FFFC,
FFEF,
0002,
0000,
FFFD,
0020,
FFF1,
FFE9,
000B,
FFEB,
0004,
0000,
0008,
001D,
0010,
0017,
000E,
0012,
0014,
001C,
0000,
0010,
FFFD,
FFFD,
000C,
0008,
FFFE,
0007,
FFFE,
FFE3,
FFF8,
0009,
0005,
FFF5,
000A,
0007,
0005,
FFF6,
FFFC,
0003,
FFF7,
FFFC,
FFF4,
FFFD,
0000,
000A,
0010,
0002,
FFFA,
0005,
FFFD,
FFF3,
0000,
FFFE,
FFED,
0003,
0000,
FFFB,
FFFF,
0009,
FFF2,
0000,
FFF3,
FFFF,
FFE6,
000B,
FFF5,
FFF3,
0002,
FFFB,
FFFB,
FFFC,
0001,
000B,
0009,
0007,
FFFE,
0000,
0009,
FFFE,
0002,
0032,
FFF9,
0019,
FFFF,
FFFF,
0008,
FFFF,
0004,
0001,
FFFE,
FFFE,
001A,
FFE6,
FFFF,
FFFE,
FFF1,
FFE3,
FFFD,
FFFE,
FFF8,
0008,
FFF6,
0000,
0003,
FFFA,
000F,
FFD9,
0004,
FFF4,
FFFB,
FFDC,
FFFC,
FFFC,
FFF7,
FFFA,
FFFC,
0002,
FFEE,
0008,
FFFC,
0001,
000C,
FFFC,
FFF3,
0011,
FFF0,
FFFC,
0002,
0015,
FFFA,
FFF5,
0025,
FFDF,
000C,
FFED,
0019,
0007,
0009,
FFEF,
0003,
0006,
0009,
FFD6,
FFFB,
FFFF,
0003,
000C,
FFFC,
000A,
FFFF,
FFFD,
FFF3,
FFFC,
0002,
FFEC,
001E,
FFFF,
FFFE,
0000,
FFF7,
FFF7,
FFFD,
0005,
0002,
0006,
0009,
FFF6,
000D,
0000,
FFFB,
0003,
FFEE,
0003,
0001,
FFFD,
0017,
FFF5,
0008,
0006,
0000,
000B,
0003,
FFFD,
001C,
FFF4,
000C,
0006,
0001,
0001,
0000,
FFF1,
0007,
FFF8,
000E,
FFE0,
FFFE,
FFF8,
FFFD,
000E,
000C,
FFEF,
FFFD,
0006,
0009,
0009,
FFF0,
FFF6,
0007,
0002,
0004,
FFF9,
FFF4,
000E,
0002,
000B,
0004,
FFFF,
000E,
FFFC,
0008,
FFFE,
0009,
FFF3,
FFFC,
000F,
FFFA,
FFFD,
0005,
FFF9,
0011,
0011,
FFF9,
FFF6,
FFF8,
0009,
0003,
FFF7,
0005,
000A,
FFF8,
FFF5,
FFFB,
FFF1,
0002,
0003,
FFF6,
0007,
FFFD,
FFEF,
FFF5,
FFFB,
FFE8,
0000,
FFFE,
0005,
FFEA,
0013,
FFFE,
FFFD,
FFF4,
0015,
FFF6,
FFFF,
FFFF,
0004,
FFFD,
0001,
FFF3,
000D,
0017,
FFFF,
FFFA,
0013,
FFE8,
FFE6,
FFEF,
FFF6,
FFF9,
0000,
0004,
0008,
0007,
0002,
0000,
FFF4,
FFFC,
000D,
FFEB,
FFFC,
0008,
0016,
FFF4,
FFF4,
000E,
FFFE,
FFF8,
0001,
000D,
FFF7,
0005,
FFF2,
FFF0,
0003,
FFFB,
FFF4,
FFFC,
0004,
000F,
FFFF,
FFF0,
0008,
FFFF,
0003,
FFFD,
001B,
FFF7,
FFF7,
FFF5,
0008,
001F,
000E,
FFF4,
FFEF,
000C,
FFCF,
0006,
FFF7,
0009,
0011,
0001,
0001,
0000,
0012,
0009,
FFCA,
0016,
0004,
0000,
FFEF,
0008,
FFFB,
FFF4,
0001,
FFFB,
FFFD,
000F,
FFDF,
0025,
FFF6,
FFFA,
FFFC,
000F,
FFED,
FFF9,
FFF4,
0008,
FFF4,
0015,
001C,
0025,
0011,
FFF6,
0007,
0000,
FFFD,
0013,
FFFE,
0002,
0009,
FFF8,
0000,
FFFD,
0005,
0003,
FFF4,
FFF5,
FFEB,
0004,
FFFC,
0002,
FFF8,
FFF3,
FFFB,
0005,
0005,
001B,
FFF6,
FFFD,
0005,
0003,
000E,
0004,
FFFD,
0002,
000A,
0003,
0017,
FFEF,
FFFD,
0006,
FFF7,
000D,
000A,
FFF3,
0009,
FFFB,
FFF6,
FFF5,
0012,
0001,
FFF8,
0007,
FFFA,
FFEF,
0008,
0013,
FFF4,
0005,
FFF5,
FFFA,
FFEF,
FFF7,
0001,
0000,
0010,
FFFD,
FFFF,
0007,
FFF6,
0001,
0012,
0000,
0005,
000D,
0001,
0001,
000D,
0013,
0007,
FFF9,
0000,
0005,
FFFC,
FFF6,
0009,
FFF9,
0002,
000C,
000D,
FFFA,
FFFE,
0003,
0001,
0017,
FFFD,
0003,
0008,
FFFC,
001B,
0005,
0009,
FFFB,
000A,
FFFD,
0002,
FFFC,
0001,
0010,
FFF2,
0014,
000B,
FFFE,
000E,
0008,
0014,
FFFF,
FFEC,
000F,
FFFC,
000B,
FFF9,
FFF3,
0006,
FFF6,
0000,
FFF8,
FFEC,
0008,
000A,
FFF7,
FFF1,
0003,
FFFB,
000F,
0004,
FFF9,
0006,
0007,
FFF8,
0002,
0006,
FFFB,
FFEF,
0002,
FFFE,
000F,
001D,
FFEF,
FFFE,
0001,
0003,
FFFE,
0014,
FFFB,
FFF2,
0003,
FFD8,
FFFE,
FFFA,
FFE4,
0001,
0004,
FFFB,
FFEF,
FFF6,
FFFC,
FFFE,
FFFE,
FFF7,
000D,
FFFD,
000A,
FFFC,
FFFB,
FFFE,
FFFC,
0011,
0023,
0001,
0008,
FFF1,
0002,
FFFF,
FFFF,
0006,
0003,
FFFB,
0005,
FFEB,
000A,
FFF7,
0026,
000D,
FFFF,
0009,
FFF6,
0007,
FFFE,
FFFE,
000C,
FFFC,
FFFE,
FFFB,
0010,
FFF4,
0007,
0001,
0005,
FFED,
FFFF,
FFFE,
0000,
0000,
FFFD,
FFFE,
FFF7,
000B,
001C,
0003,
0002,
0001,
0007,
FFFA,
FFFC,
0002,
FFF8,
000F,
0009,
FFF0,
0006,
FFFF,
FFFE,
0007,
0004,
0000,
0004,
0002,
0003,
0004,
FFFB,
0000,
0000,
FFFE,
0003,
000D,
0004,
0012,
000D,
0002,
FFEE,
0000,
FFFD,
0003,
FFFF,
FFFA,
0004,
0002,
0000,
FFFD,
FFFA,
FFF9,
0005,
000C,
0001,
0007,
000A,
FFFC,
0001,
FFFE,
0033,
000E,
000A,
FFFD,
0000,
FFFD,
0003,
0002,
000C,
FFB0,
0018,
000A,
000A,
FFFA,
0002,
0009,
0004,
0000,
0004,
FFFE,
0009,
0004,
0009,
0003,
0009,
0003,
000B,
FFFB,
0000,
0006,
FFF9,
FFFF,
000B,
0003,
0001,
0000,
0005,
0003,
0009,
FFED,
000A,
FFFE,
0001,
FFF9,
FFF5,
0008,
FFFE,
0002,
FFFE,
FFFF,
000B,
0004,
0006,
0001,
FFFE,
FFFE,
0003,
FFFB,
FFFB,
FFFB,
0006,
FFFE,
FFFC,
000C,
0006,
FFFC,
FFF5,
0005,
FFF9,
0009,
FFF7,
0003,
FFEB,
0002,
FFFB,
000E,
0004,
FFF8,
0004,
FFC7,
FFFF,
0005,
0003,
000A,
000B,
0004,
FFFC,
0001,
FFF7,
0006,
0008,
FFF9,
0009,
FFF5,
0005,
000C,
FFFE,
0000,
FFFE,
000B,
000C,
0009,
FFFC,
0009,
FFFD,
FFFD,
000B,
0033,
0004,
0002,
FFE6,
FFD5,
000A,
0003,
000A,
001A,
FFFA,
FFFB,
FFFE,
FFFE,
0005,
0000,
0013,
FFF9,
FFFF,
FFFC,
000D,
0001,
0002,
FFFE,
0002,
FFFF,
FFF9,
0000,
FFFC,
FFFA,
0018,
0005,
FFFD,
0009,
0012,
FFF5,
FFF9,
000B,
0006,
0004,
0008,
FFFB,
FFF5,
0003,
000A,
000E,
0001,
FFF9,
0023,
FFFA,
FFF1,
FFF6,
FFE9,
0008,
FFF4,
0004,
0006,
FFFE,
0005,
0008,
0000,
001D,
001F,
0006,
000F,
0035,
FFFE,
0000,
FFFD,
0000,
0002,
0005,
FFFB,
FFFA,
FFFF,
0000,
FFF3,
FFFE,
000B,
0010,
0004,
FFB6,
0007,
FFFA,
FFFA,
0001,
FFEA,
0000,
000F,
0008,
0006,
0000,
FFF4,
0039,
0015,
FFFD,
FFDC,
FFFC,
FFF8,
0001,
0000,
000F,
0003,
0004,
FFDF,
0003,
FFD5,
FFF5,
FFFB,
FFFE,
0002,
0000,
FFD1,
0002,
FFFA,
FFFF,
FFF1,
0043,
0034,
FFFB,
FFFF,
0004,
FFFD,
0009,
FFEC,
0004,
000A,
0006,
FFFF,
001A,
0004,
0003,
FFFD,
000E,
0002,
FFFB,
0037,
FFFA,
0000,
0002,
FFDC,
0007,
0003,
0005,
FFFF,
FFFE,
0001,
FFEC,
FFF3,
FFFE,
FFF4,
000D,
FFF7,
0008,
000E,
0032,
FFFB,
FFDC,
FFFA,
0003,
FFFA,
0015,
0004,
FFFC,
FFF2,
000D,
0002,
FFFE,
0016,
0003,
FFFD,
0005,
0000,
0002,
FFFC,
FFF2,
FFF5,
0007,
0000,
FFF2,
0004,
0010,
0007,
0000,
0006,
0001,
0003,
FFFA,
000D,
FFFF,
FFF7,
0002,
FFFF,
0000,
0000,
FFFE,
0004,
0009,
0003,
FFF8,
000D,
0018,
0003,
FFFD,
0003,
FFFD,
0008,
0000,
0009,
0001,
FFFE,
FFF6,
FFF4,
0006,
0007,
0006,
FFF1,
0007,
FFDB,
0000,
FFF5,
0001,
FFE9,
FFF6,
0001,
0007,
0003,
000A,
FFFE,
FFE6,
0007,
0015,
FFF8,
FFFA,
FFF0,
0006,
0001,
FFFF,
FFDF,
000F,
FFFD,
FFF9,
001C,
0013,
0003,
0019,
0028,
0013,
FFD6,
FFE9,
001A,
000B,
0018,
0028,
000C,
FFFF,
002B,
000E,
FFFB,
0012,
FFF5,
FFFB,
FFE6,
0009,
000B,
FFEB,
000C,
0002,
FFF3,
0026,
001C,
FFF8,
FFDE,
0004,
0004,
0013,
0014,
FFE4,
0005,
FFD9,
0006,
0001,
001F,
FFD2,
000A,
0005,
0017,
0000,
FFF1,
FFBF,
001C,
0008,
0017,
FFFE,
0002,
FFEF,
FFFE,
FFFF,
FFF5,
FFF0,
000F,
0001,
FFD9,
000E,
FFFC,
FFFA,
FFE5,
0000,
FFFD,
FFFD,
0002,
0020,
FFFE,
FFFD,
0020,
0012,
FFF5,
FFF8,
002D,
0029,
FFCE,
0005,
FFFD,
0005,
0014,
FFF8,
FFEC,
0002,
0004,
0009,
0006,
0001,
FFFC,
FFD9,
FFD9,
0004,
FFFD,
0019,
0006,
0006,
0001,
0010,
0002,
FFCE,
0000,
0013,
FFE7,
FFFE,
000F,
FFF4,
FFFF,
FFED,
FFFB,
0004,
0025,
000E,
0005,
FFF7,
0006,
0006,
0003,
FFE9,
0007,
FFFD,
0000,
0004,
000C,
0004,
FFFB,
000D,
FFF1,
FFED,
0021,
FFF4,
FFE0,
FFF0,
FFE4,
0002,
FFE2,
FFFA,
FFFC,
FFF7,
FFF2,
0003,
0001,
000C,
FFEA,
0004,
FFFF,
FFF9,
0004,
0006,
000D,
FFDD,
FFD4,
FFF8,
FFFF,
FFF5,
FFEC,
FFEA,
000B,
FFFE,
FFE2,
FFF7,
000F,
0033,
FFDE,
0019,
000C,
0003,
0001,
FFFE,
FFDC,
FFEF,
FFFE,
FFFE,
0014,
0007,
000B,
FFFE,
000E,
FFFE,
FFFC,
0001,
FFFF,
0016,
FFF5,
FFFB,
FFE6,
0003,
0009,
0011,
0000,
0002,
0006,
FFD8,
0011,
0017,
FFF0,
FFE8,
FFFB,
FFFD,
000A,
0020,
FFF8,
0006,
0007,
FFF8,
FFF8,
FFFC,
0005,
FFF6,
FFFA,
0018,
FFE4,
0000,
000B,
FFF2,
FFFB,
FFEB,
0022,
0003,
FFF4,
FFFE,
FFF9,
FFDE,
FFF1,
FFF7,
FFF1,
0001,
0000,
FFEC,
0005,
0008,
FFF3,
0004,
FFF3,
0009,
000B,
0006,
FFF8,
FFFD,
001C,
0003,
0008,
FFDC,
001A,
FFFA,
001F,
FFF8,
FFDA,
0013,
0021,
0009,
0001,
0009,
0010,
FFF8,
0008,
0020,
FFF1,
0002,
0001,
0004,
FFFE,
0028,
0005,
0000,
FFFA,
FFFE,
0001,
0012,
0006,
FFF5,
000F,
0009,
FFF5,
FFDE,
002D,
FFF6,
0005,
0005,
FFFB,
0016,
0019,
0014,
FFEA,
0016,
FFF6,
FFF4,
FFF3,
FFF9,
0006,
0004,
FFF2,
FFF7,
0006,
FFE9,
0004,
FFE9,
FFF7,
0030,
FFFF,
FFF1,
FFF9,
0014,
FFFC,
FFFD,
FFF4,
FFFD,
FFFA,
002D,
FFF4,
0005,
FFF7,
FFFC,
000E,
0028,
0007,
FFF7,
0005,
000A,
0005,
0002,
000E,
FFEC,
0007,
FFFE,
FFFF,
0007,
0005,
0002,
0008,
000B,
0004,
0000,
FFFF,
0006,
0000,
FFFD,
FFF4,
000B,
0009,
FFEF,
FFE7,
FFF0,
FFF2,
000F,
000C,
FFED,
0004,
0013,
0024,
000B,
0005,
0011,
0018,
FFEA,
0007,
FFF9,
FFFB,
FFFB,
FFF1,
FFFB,
FFD7,
FFE9,
FFFD,
0012,
FFF0,
FFF7,
0020,
0002,
0000,
FFD2,
0008,
0012,
FFE7,
FFF9,
FFFE,
FFE9,
FFFA,
FFFB,
0002,
0005,
FFFC,
FFF5,
FFF0,
0007,
FFFB,
0007,
0003,
0001,
0002,
FFFE,
FFFC,
FFE0,
0001,
FFF4,
0011,
0017,
FFFB,
0001,
FFFE,
FFFC,
0005,
0006,
FFFA,
000D,
FFFE,
0000,
FFFA,
0026,
FFFD,
0006,
000F,
0001,
FFFF,
0009,
FFFF,
0003,
FFFE,
0002,
FFFF,
FFFB,
000E,
0000,
FFFE,
FFFC,
0000,
FFFA,
FFF9,
002D,
000A,
0004,
FFFE,
FFE5,
FFFC,
0009,
FFF8,
0004,
FFF5,
FFFB,
0015,
FFFE,
0003,
FFFE,
0003,
0004,
FFF5,
0001,
FFFF,
0006,
0009,
FFFE,
FFF6,
0003,
FFE4,
0009,
0001,
FFF5,
001F,
FFFD,
FFF8,
0008,
0002,
0000,
FFFE,
0001,
FFFE,
0000,
0013,
0002,
FFFA,
0003,
FFFC,
FFF5,
FFFE,
0000,
0001,
FFFA,
000A,
FFFF,
FFFE,
FFEC,
000B,
FFFD,
0001,
0000,
FFFA,
0000,
0000,
0000,
000A,
0002,
FFDD,
FFFB,
0011,
FFF2,
FFFC,
0009,
0023,
FFF1,
0001,
0003,
FFF2,
FFFE,
000A,
0007,
0001,
FFF3,
0001,
0006,
0008,
FFFA,
FFFF,
FFEB,
0000,
FFF7,
FFFC,
FFFA,
0003,
FFFE,
FFFF,
0004,
FFF8,
FFF2,
0002,
0002,
FFEF,
FFDD,
FFFE,
FFFC,
0010,
000D,
0004,
FFF6,
0003,
0003,
0001,
0013,
0001,
FFFB,
FFF9,
0005,
000C,
FFF9,
FFF8,
0002,
0006,
FFF9,
0000,
FFFD,
FFEC,
0004,
FFF9,
0002,
0003,
FFF6,
0018,
FFF5,
FFFE,
FFF5,
0002,
FFE9,
0004,
000D,
FFF5,
FFF9,
FFFF,
0005,
0002,
FFFE,
FFFF,
0007,
FFC8,
FFFF,
FFE9,
0013,
0002,
0013,
FFF5,
000F,
001C,
000F,
0030,
FFE2,
FFFB,
0031,
FFEF,
000F,
FFF0,
FFF6,
0001,
0000,
0009,
000D,
FFF7,
FFF2,
FFF9,
FFE9,
0003,
0019,
0002,
0002,
0001,
0009,
FFFC,
0000,
FFF8,
FFFD,
FFF0,
0009,
0003,
0029,
0001,
FFF9,
FFF8,
0017,
FFED,
0017,
002C,
000B,
FFF1,
0001,
0016,
FFF0,
0005,
FFFF,
000C,
000B,
FFFF,
0010,
FFF6,
FFF9,
FFFD,
0003,
0004,
000A,
0005,
FFF5,
0010,
000A,
FFF0,
0008,
0008,
0008,
FFFE,
FFF4,
0001,
0002,
FFFF,
0001,
FFF4,
000B,
FFE1,
FFD6,
000F,
0013,
0011,
000B,
FFF7,
FFE6,
FFEB,
FFEC,
FFF6,
0003,
FFEC,
FFFD,
0003,
FFEF,
FFF9,
0008,
FFFB,
FFF7,
0002,
FFF1,
000D,
0001,
0002,
0011,
FFC8,
0016,
FFF6,
0012,
0026,
0010,
0003,
FFE8,
FFF3,
0003,
0000,
000F,
FFFA,
FFFE,
FFF6,
FFD9,
0001,
FFFC,
FFFE,
FFFF,
0006,
FFFD,
0004,
FFFF,
001A,
FFF8,
0015,
FFF8,
FFEC,
0005,
FFFB,
FFFF,
FFF8,
FFFB,
0016,
000A,
0006,
FFEB,
FFFA,
0008,
FFFA,
0008,
FFFD,
FFFE,
0006,
FFF7,
000D,
FFE9,
FFF6,
FFFB,
FFFF,
000B,
FFEE,
0003,
000A,
FFEF,
FFF9,
FFFF,
FFEC,
FFF5,
0015,
0013,
001B,
FFFD,
FFF8,
0011,
FFFC,
0005,
FFE3,
0006,
0003,
0000,
FFF9,
FFFC,
0008,
FFFF,
000F,
0019,
0012,
FFFC,
0005,
FFD9,
FFED,
FFDD,
FFEA,
FFF1,
FFFB,
0003,
FFFE,
FFFE,
0003,
FFFA,
FFED,
FFFE,
FFFD,
0004,
FFFA,
FFFC,
0000,
0003,
0002,
FFFC,
FFFA,
0018,
0003,
000A,
FFF9,
FFFF,
FFFF,
FFFF,
FFFB,
0007,
0000,
0005,
FFFF,
000E,
0002,
FFFA,
0004,
FFFC,
0001,
0005,
000A,
0001,
0003,
FFF8,
0010,
0002,
000F,
FFFD,
FFFE,
0001,
FFEF,
0002,
FFF8,
005D,
FFED,
0006,
0007,
FFFA,
FFFC,
FFFE,
FFFF,
0001,
0009,
FFFE,
FFF0,
0001,
000A,
FFFB,
0001,
FFFE,
0009,
0004,
FFFD,
0003,
0004,
0009,
FFF8,
0000,
FFDE,
0003,
0004,
0002,
FFF6,
FFE8,
FFFF,
FFFD,
FFFE,
FFFC,
FFF9,
0004,
FFFD,
FFF9,
0008,
FFFF,
FFFF,
FFFE,
0006,
FFF5,
FFF8,
FFFE,
FFFF,
FFF8,
0003,
FFFD,
0002,
0000,
FFFE,
0003,
FFFA,
0001,
FFEB,
0002,
FFF7,
FFFE,
FFF9,
0000,
000E,
0001,
FFF5,
FFF9,
0001,
FFF6,
001F,
FFCB,
FFFF,
FFFC,
FFFA,
0003,
000C,
0001,
FFFF,
FFFD,
FFFE,
0012,
FFFB,
FFFE,
FFFF,
FFF6,
0000,
0007,
FFFC,
FFFE,
FFFE,
0007,
0009,
FFF9,
0008,
0001,
FFF9,
0000,
FFEE,
FFB8,
0002,
0001,
FFEA,
FFED,
0005,
FFFA,
0023,
0007,
FFFB,
0003,
0000,
FFFF,
FFFE,
0000,
FFFA,
FFF9,
FFFD,
FFFD,
0002,
0001,
0000,
0001,
FFFE,
0001,
FFF6,
FFFC,
FFFB,
FFFF,
FFFA,
FFFC,
FFFD,
0001,
0004,
000B,
FFFA,
FFF8,
FFF0,
0008,
0001,
0001,
FFF4,
0002,
0003,
FFFF,
FFF1,
0002,
000D,
0008,
0008,
0005,
FFFB,
FFEC,
FFFB,
0011,
000B,
FFFA,
000E,
0009,
FFFC,
000A,
0004,
0003,
001D,
FFF3,
0013,
0004,
FFEC,
FFF0,
0004,
0014,
FFFA,
0000,
0013,
0002,
0009,
0007,
0011,
FFEB,
0019,
0005,
0001,
0000,
FFF9,
0008,
FFFE,
FFEE,
0007,
0026,
FFD5,
0003,
FFF9,
FFE9,
000C,
FFFD,
0008,
FFDC,
0018,
FFFA,
000B,
0005,
FFDE,
0012,
0013,
0034,
0009,
FFF9,
0005,
FFF5,
0006,
0009,
0016,
FFF2,
FFFB,
0007,
0019,
000A,
0009,
FFF6,
FFFD,
FFFD,
FFD3,
FFE1,
000E,
FFFE,
000E,
0003,
FFF7,
0001,
FFF2,
0013,
FFF8,
FFF6,
0001,
0022,
FFF7,
0015,
FFF9,
FFF5,
0004,
0020,
0003,
0013,
FFFC,
FFFE,
0027,
000B,
0002,
FFEF,
FFFF,
FFE0,
0012,
001F,
FFFA,
000F,
FFD9,
0014,
FFFA,
002E,
FFFA,
000E,
0016,
0001,
FFF2,
FFFA,
FFF1,
FFF8,
0004,
001B,
FFFC,
0009,
FFFB,
FFE7,
FFEC,
FFF4,
FFE4,
0001,
0002,
FFF0,
FFE4,
0004,
FFE5,
0005,
0009,
0016,
000E,
FFFE,
000C,
FFFC,
FFEC,
FFF5,
0000,
0008,
0000,
0004,
0012,
0002,
FFF5,
FFFC,
0007,
FFE7,
FFFC,
FFE8,
FFF8,
FFE3,
0001,
FFFB,
0001,
000F,
FFF5,
0016,
FFE0,
FFE0,
0003,
FFF5,
FFE8,
FFD2,
FFF8,
FFFA,
FFF8,
FFF9,
0002,
FFFB,
FFF9,
FFD1,
000A,
0004,
001C,
FFF7,
0008,
FFF0,
FFE6,
FFF3,
000C,
0006,
FFF9,
000A,
FFF9,
FFF2,
FFF7,
0003,
FFF3,
0003,
FFF5,
FFFC,
FFFA,
0003,
0000,
0009,
FFFC,
001E,
0009,
0012,
FFFB,
FFEF,
0009,
FFFD,
0012,
0007,
FFFF,
FFF9,
FFF7,
FFFE,
FFEF,
FFFA,
FFFA,
000C,
0007,
0004,
FFFA,
FFE8,
FFF5,
0005,
FFF3,
FFFB,
FFFD,
FFEA,
FFFF,
FFF5,
FFF7,
0015,
FFFD,
0009,
0022,
0006,
000C,
0002,
FFFC,
0007,
0007,
FFF7,
FFF7,
FFF8,
FFF2,
0005,
FFF8,
FFED,
FFFA,
FFEB,
FFEE,
0003,
FFFA,
0002,
0009,
0004,
FFF1,
0003,
0000,
FFF7,
000A,
0000,
FFFB,
FFF1,
FFF5,
000D,
FFF7,
0019,
FFF2,
0004,
0004,
0008,
0008,
FFF9,
0002,
000B,
FFFA,
0004,
FFFF,
0005,
FFFE,
000F,
0004,
0000,
0002,
0009,
0001,
000B,
FFF0,
FFFD,
0004,
0000,
0001,
0016,
0010,
FFF8,
FFF7,
000B,
0002,
000F,
FFFF,
FFFC,
0018,
FFFA,
FFF5,
0002,
FFFB,
0011,
0000,
FFFF,
0002,
FFFF,
FFEE,
0007,
0006,
FFF5,
0006,
FFF7,
0004,
FFFF,
0003,
0001,
FFF9,
0003,
FFE3,
0001,
000F,
0004,
FFF2,
0006,
FFFC,
FFF9,
FFF5,
0004,
000C,
0001,
FFFE,
FFFD,
FFFD,
000C,
FFF6,
FFEA,
FFF2,
FFF1,
FFFA,
0014,
0003,
0000,
FFFC,
000F,
000C,
FFF9,
FFFE,
0005,
0002,
0004,
FFFA,
FFFA,
FFF6,
0006,
FFF0,
0001,
FFF8,
0011,
0006,
FFFB,
000E,
FFF9,
FFF4,
0000,
0006,
000D,
0004,
0006,
0011,
FFE0,
000D,
FFFF,
FFF9,
FFD0,
FFFC,
FFF0,
FFF7,
0009,
000A,
0010,
FFFF,
FFFD,
0002,
FFE9,
FFF7,
FFFA,
FFF9,
FFEA,
FFFF,
000E,
FFFC,
000E,
0007,
FFF1,
FFE1,
0002,
0007,
0005,
FFFB,
FFF7,
0007,
FFFE,
FFFF,
0003,
FFF0,
0001,
FFFC,
FFEB,
FFFA,
0016,
0009,
0004,
0007,
FFFA,
FFFF,
000D,
FFDC,
FFED,
0002,
FFFA,
000B,
FFF4,
FFFD,
FFFC,
0020,
0007,
0008,
0012,
0001,
FFF2,
FFFD,
FFF5,
FFEF,
FFFB,
0000,
0005,
FFEB,
0009,
0009,
0004,
0003,
001D,
0003,
FFF5,
0027,
FFED,
FFE3,
0001,
FFEF,
FFFB,
0006,
000D,
FFEB,
FFE5,
0002,
0000,
000C,
002B,
000A,
FFF7,
0001,
FFF7,
000A,
FFFD,
FFE7,
0005,
0006,
FFF6,
0023,
FFF6,
0006,
FFF3,
000B,
FFFA,
FFF9,
0026,
FFF9,
0001,
001F,
0016,
0006,
FFF4,
FFF5,
001F,
FFFA,
001F,
0004,
FFF5,
0009,
000B,
FFF5,
000F,
0015,
FFEF,
FFFA,
FFF6,
000B,
FFF9,
0012,
FFF9,
FFFE,
0013,
FFFD,
FFFD,
0010,
FFFB,
FFFA,
0005,
0008,
FFEB,
FFFC,
FFFC,
0002,
FFFD,
0000,
FFF3,
FFE3,
FFED,
0000,
FFFC,
FFFD,
FFFB,
0000,
FFF8,
FFD1,
FFE5,
000B,
0004,
FFF9,
000A,
0003,
FFF6,
FFFB,
0004,
0001,
0009,
FFE8,
002F,
FFFD,
FFFE,
000C,
FFFE,
FFFC,
FFFE,
FFF2,
FFFD,
000D,
0008,
FFF9,
FFF2,
FFE0,
0020,
FFFF,
0010,
0011,
FFFA,
FFF9,
0013,
FFF7,
0028,
0006,
000C,
FFFB,
FFFC,
FFFD,
0010,
0003,
FFE4,
000A,
FFF6,
0003,
0013,
FFF9,
000B,
FFDD,
0007,
FFF5,
000C,
0006,
0011,
0007,
FFF6,
FFFD,
0013,
0004,
FFDE,
FFF5,
000C,
0003,
FFF9,
000C,
0012,
FFFE,
FFEE,
0001,
0000,
0008,
FFE8,
FFF8,
FFF3,
FFF4,
FFFA,
0008,
FFEB,
FFF2,
FFFB,
0004,
0006,
000A,
0002,
FFE8,
0004,
FFF3,
001A,
0023,
FFFE,
0016,
FFF8,
0009,
FFFB,
0004,
0005,
000A,
FFFF,
FFF9,
0004,
FFFE,
FFFD,
FFEF,
FFF6,
0001,
000A,
001A,
FFFC,
0000,
000E,
0008,
001F,
0015,
0000,
0010,
0002,
0014,
FFF8,
0004,
0011,
000B,
FFFB,
0006,
0001,
FFFB,
0003,
000B,
FFD8,
FFE4,
000D,
0002,
FFFC,
0005,
000A,
FFFF,
0004,
0004,
0003,
FFF5,
0002,
0004,
FFE9,
FFEC,
0002,
0000,
FFE6,
FFF8,
0001,
FFE8,
0001,
000C,
0003,
0002,
0000,
FFED,
FFE4,
000F,
FFF1,
FFFA,
0004,
0012,
FFD9,
0005,
FFF5,
0003,
0015,
FFF9,
0002,
FFFC,
0002,
FFF7,
0009,
0003,
FFFD,
0000,
0006,
0016,
FFFA,
000C,
0009,
FFFE,
FFF5,
0015,
FFFD,
FFF5,
0002,
0002,
0003,
FFFC,
FFFA,
0007,
0006,
0003,
0007,
000D,
000E,
0000,
0016,
0015,
FFF4,
0015,
FFFC,
000D,
FFF1,
000B,
000C,
FFEA,
0002,
0003,
FFEE,
FFED,
FFFA,
FFDF,
FFFF,
FFDD,
0010,
0013,
FFF3,
0001,
FFFF,
FFFB,
FFFE,
0006,
0025,
0009,
0007,
FFEF,
FFFB,
FFF9,
0005,
FFFE,
FFF8,
001A,
0010,
FFF1,
000F,
0010,
FFF9,
FFFB,
FFF5,
FFEC,
0006,
0005,
0007,
002A,
FFE6,
FFF0,
FFF9,
FFF8,
FFF8,
002C,
FFE8,
001B,
0005,
FFFD,
FFED,
FFF1,
0001,
FFFC,
0002,
000A,
0003,
002F,
0017,
0017,
000A,
000C,
0005,
FFE7,
0002,
FFE8,
FFFA,
0000,
FFE5,
FFFC,
001D,
FFD9,
000A,
0009,
FFFB,
0001,
0001,
FFFC,
FFEB,
FFEA,
FFE9,
0037,
FFF3,
FFF3,
0004,
0019,
0015,
FFFA,
FFFD,
FFFC,
FFEA,
002E,
000A,
FFFF,
001D,
FFD9,
0013,
0001,
FFF6,
FFF7,
FFF7,
0007,
FFD9,
0011,
FFEA,
0004,
FFF1,
FFFC,
FFEC,
0018,
FFFD,
FFF2,
0008,
0007,
0010,
FFE5,
0017,
FFF3,
FFFF,
000F,
0001,
0022,
FFF5,
FFF5,
001E,
FFE8,
0023,
FFFE,
0008,
FFF8,
FFF9,
0013,
0025,
FFFA,
000E,
FFE1,
FFE6,
FFF6,
FFFC,
FFF8,
FFFB,
FFF8,
0004,
0029,
FFE2,
FFFB,
FFFF,
0012,
000E,
FFE1,
FFEF,
000D,
000B,
0001,
FFED,
0005,
0001,
002D,
0028,
0005,
0011,
FFCE,
FFF8,
0009,
FFE9,
0004,
FFEB,
0029,
FFFC,
FFFE,
000A,
FFE3,
0003,
0003,
0008,
0006,
0001,
FFF6,
0017,
FFF4,
FFED,
000C,
FFE4,
FFCD,
FFEB,
FFEA,
FFF8,
0021,
0002,
0007,
000B,
0032,
000D,
FFEF,
FFFF,
000F,
FFFB,
FFF2,
FFC4,
0023,
FFFF,
FFD7,
FFF8,
0000,
0011,
0001,
FFFF,
000D,
FFFF,
0004,
0008,
FFDB,
0001,
FFF0,
0009,
0018,
0034,
0011,
0006,
FFFA,
FFFD,
0002,
FFFD,
0012,
0014,
FFE4,
0006,
0009,
000C,
FFFE,
FFFB,
FFFE,
FFEF,
FFFC,
FFF3,
0005,
0010,
0006,
FFF0,
000D,
FFF3,
FFFB,
FFF4,
000F,
FFF1,
0000,
FFFF,
0004,
0023,
FFFE,
0001,
FFEE,
FFF7,
FFF9,
001A,
0012,
0000,
FFF8,
FFE7,
0007,
FFFA,
0007,
0001,
FFF2,
FFFF,
0001,
000E,
0001,
FFFD,
0013,
0001,
0003,
FFEB,
0006,
000A,
0004,
FFFE,
FFE4,
0005,
0006,
FFFF,
FFE6,
FFF9,
0001,
FFFD,
FFF7,
000C,
0007,
000F,
FFEA,
FFEB,
000E,
0000,
0008,
FFF4,
FFF6,
0017,
0001,
000D,
FFFA,
0006,
FFF8,
0011,
FFEB,
000B,
0009,
001A,
FFE4,
FFFA,
0006,
FFF3,
FFF3,
FFF3,
FFF6,
FFFE,
FFF8,
FFF7,
FFFF,
FFF5,
FFF9,
FFFC,
0011,
0003,
0009,
FFFE,
FFEA,
0008,
FFFC,
0008,
0002,
FFD5,
0002,
FFFA,
0007,
FFF8,
0002,
0001,
0009,
0004,
FFFF,
FFE5,
0000,
0004,
000A,
FFFB,
0000,
FFF0,
FFFA,
0006,
FFE6,
000C,
FFFF,
FFF7,
0003,
0016,
FFFA,
FFFA,
FFFB,
FFF8,
0002,
FFFD,
FFF9,
FFF0,
0001,
0004,
FFF6,
0001,
FFFC,
000C,
000D,
0002,
0000,
001D,
FFF3,
FFFF,
0007,
0004,
000F,
FFFD,
FFF4,
0005,
FFF8,
FFEE,
0002,
0011,
0001,
000C,
0002,
FFFE,
FFED,
FFF3,
0007,
FFFA,
FFFE,
0008,
0003,
FFF1,
FFFD,
FFEF,
000D,
FFFE,
FFFF,
001F,
0009,
FFFC,
0003,
000C,
0007,
0003,
0010,
FFFE,
0014,
0007,
0015,
0005,
FFE2,
0007,
0002,
FFE1,
FFE3,
FFF0,
FFDB,
0006,
FFEB,
FFF9,
000E,
FFEF,
001B,
0008,
0013,
0019,
0007,
0007,
FFDF,
001D,
FFF5,
0001,
0004,
FFE5,
FFFC,
FFFB,
FFED,
0020,
0007,
FFE8,
0018,
0005,
0003,
0010,
0018,
0005,
0007,
001E,
000A,
FFFA,
FFF0,
FFE1,
0006,
FFF4,
FFFB,
0002,
FFFE,
0017,
001C,
0000,
001B,
FFE1,
FFE4,
FFFF,
0007,
FFFC,
FFFF,
FFF9,
FFF4,
0008,
FFDD,
0003,
0004,
FFF5,
0011,
0011,
FFF3,
FFFB,
FFFC,
FFF2,
0000,
FFF4,
0009,
FFD9,
001B,
FFED,
FFF8,
000B,
FFF1,
FFFB,
FFE2,
FFFE,
0023,
0020,
000C,
000A,
000A,
FFFE,
0011,
0000,
0003,
FFFA,
FFF0,
0004,
0004,
FFE0,
FFDB,
FFF8,
FFF1,
0000,
0000,
0009,
0011,
FFF8,
FFFD,
FFF8,
0012,
FFF5,
0000,
0020,
FFFC,
FFF8,
FFEF,
FFD8,
0002,
0003,
0020,
0014,
0008,
001B,
FFFE,
FFFD,
FFE7,
0012,
0009,
000F,
FFF9,
0020,
FFDC,
FFF0,
0038,
FFFB,
FFFB,
000B,
FFF7,
FFFB,
0005,
FFE8,
FFFA,
FFE2,
000B,
FFFE,
0008,
000C,
0003,
0003,
FFF9,
000B,
0005,
0008,
0010,
0019,
000A,
FFF6,
0007,
0026,
0012,
FFF6,
0008,
0006,
0021,
000C,
0004,
FFDF,
FFFD,
0004,
FFFC,
0008,
FFFF,
000B,
0015,
FFFD,
0009,
FFF4,
0017,
0001,
0016,
0000,
FFF8,
FFFE,
FFEC,
FFEA,
FFF3,
0001,
000E,
001B,
FFFD,
0011,
0013,
002B,
0026,
000F,
000A,
000D,
FFEF,
FFFC,
FFF5,
FFFA,
0004,
0006,
FFEF,
FFEB,
FFFF,
0011,
002E,
0009,
0007,
0008,
0001,
FFF7,
0003,
FFFC,
FFF2,
0000,
0000,
FFFE,
0006,
0008,
FFE0,
000C,
FFFD,
FFF1,
FFF4,
FFD3,
0019,
FFF4,
FFFC,
0011,
0008,
FFF1,
000B,
FFFE,
0001,
0005,
FFF3,
0029,
0004,
0000,
FFFF,
FFF9,
0004,
0009,
FFFC,
0014,
0008,
0001,
FFF9,
000E,
FFF2,
0009,
0002,
FFF4,
FFF9,
FFFD,
FFE5,
0011,
0003,
000E,
FFE1,
FFFC,
000B,
0000,
0002,
0004,
FFF7,
FFFB,
0006,
FFF2,
0002,
FFFD,
FFF6,
000C,
0004,
FFF8,
FFF4,
0007,
0005,
FFF8,
000D,
FFFA,
0007,
000C,
FFF4,
0005,
0009,
0008,
0008,
0007,
FFF5,
FFF7,
FFD1,
FFF7,
000B,
000B,
000A,
FFFF,
0008,
FFFD,
0003,
FFF5,
FFF5,
FFFB,
000D,
0010,
000C,
FFF1,
0008,
0014,
FFFD,
FFF4,
0009,
0004,
FFE4,
FFF5,
FFFA,
FFF5,
0007,
FFFE,
0008,
FFFF,
0005,
0026,
FFF6,
0012,
0017,
FFF9,
FFF7,
0001,
FFEB,
0003,
0000,
FFC3,
FFF8,
FFFB,
FFFF,
000D,
0001,
FFFA,
0010,
FFEC,
FFF1,
000C,
FFF4,
0004,
0005,
FFF2,
FFEE,
0003,
FFF8,
FFEA,
001A,
0009,
0005,
0003,
001F,
FFFC,
FFFC,
FFFD,
0000,
0001,
FFEC,
FFFA,
FFD9,
000B,
FFFE,
FFFF,
0001,
FFFC,
FFEB,
0005,
0007,
FFF5,
FFF9,
FFF9,
0004,
FFD4,
FFEF,
FFFA,
0021,
FFF6,
0006,
FFFE,
0005,
0006,
000F,
FFF7,
FFE7,
0006,
FFFF,
000C,
FFFB,
FFFD,
0009,
0015,
0005,
002D,
FFFC,
FFF7,
000E,
FFF1,
FFFC,
0003,
FFFD,
0007,
0003,
0007,
0007,
0009,
FFFF,
FFF0,
FFF5,
FFF6,
000C,
000F,
0003,
000B,
000E,
0004,
FFFD,
000B,
FFF2,
0014,
001C,
FFFB,
FFFF,
FFF8,
FFFE,
FFF8,
0015,
FFF1,
0012,
0014,
000D,
FFE9,
0006,
FFF7,
000C,
FFFF,
0003,
0006,
FFF9,
000D,
002B,
0003,
000A,
0004,
001F,
FFDB,
0000,
FFEB,
FFDC,
0012,
FFDD,
0006,
FFF8,
000C,
0010,
FFFD,
0018,
FFD1,
000A,
FFFF,
0005,
FFDB,
0003,
000F,
FFFF,
0000,
001A,
0004,
FFEB,
000D,
0006,
002D,
FFEA,
0002,
0004,
FFE2,
0021,
FFF4,
0005,
000D,
FFF3,
0008,
FFD6,
FFFD,
FFF5,
FFFC,
0002,
001A,
FFFF,
FFE7,
0000,
FFFF,
FFEE,
0025,
FFFB,
FFFA,
FFFC,
FFF4,
0006,
0019,
FFE0,
0001,
FFEE,
0000,
FFF6,
0001,
FFF4,
000E,
FFFE,
0003,
0002,
001C,
0001,
0003,
FFFE,
0007,
0003,
0001,
000A,
FFFD,
FFF7,
FFE9,
FFFF,
000C,
FFF1,
FFE6,
0004,
FFE6,
FFE2,
FFEE,
000E,
FFFB,
0004,
FFF9,
0007,
0001,
0004,
0003,
0006,
0002,
0014,
0019,
FFFB,
0005,
000A,
0004,
0003,
FFFF,
FFEE,
FFFA,
FFF2,
0005,
FFF7,
FFF7,
0008,
0015,
FFFB,
000B,
0006,
0002,
FFF7,
0008,
002A,
0013,
0008,
FFF9,
FFF1,
000A,
0001,
FFF2,
0002,
FFFF,
FFFF,
0004,
0012,
0013,
FFF7,
0001,
FFF9,
FFF6,
0006,
0002,
FFF9,
FFEC,
0002,
FFFA,
000D,
FFF9,
000B,
0008,
000E,
0000,
FFFB,
FFF9,
000E,
FFEE,
FFFF,
FFEE,
0001,
FFEC,
FFF5,
0017,
FFF2,
0016,
FFE7,
FFFD,
0006,
FFFF,
FFF9,
FFE9,
0004,
000A,
FFFC,
FFE6,
0009,
FFFD,
FFF8,
FFFB,
FFF5,
0001,
0006,
FFFE,
FFEB,
0006,
000C,
0019,
0008,
FFE9,
FFEF,
FFFE,
FFFC,
0004,
000F,
FFF3,
FFFB,
0014,
0000,
0008,
FFF6,
FFE8,
0002,
FFF5,
FFF7,
FFF6,
FFFB,
0015,
0008,
FFEC,
000E,
FFEB,
FFEB,
0010,
0006,
FFF6,
0016,
0005,
FFF5,
0006,
0003,
0001,
FFE6,
FFF0,
0003,
FFE8,
0007,
000A,
000E,
0009,
000F,
0006,
0004,
FFEE,
FFF8,
000E,
0000,
0012,
001A,
FFF7,
FFF4,
0022,
0008,
0004,
FFFD,
FFE3,
FFFA,
0013,
FFEF,
FFF2,
0002,
0001,
FFEA,
FFF5,
000E,
FFF3,
0006,
0003,
0013,
FFF5,
0012,
FFFE,
0013,
FFF7,
FFFB,
FFF6,
001F,
FFF0,
0005,
FFFB,
FFF6,
FFF6,
0009,
0020,
FFFF,
FFFB,
FFFF,
0002,
0007,
0008,
000E,
FFFE,
FFF9,
FFFB,
0001,
FFF2,
FFFD,
0014,
0004,
001D,
FFF9,
0017,
FFEC,
0012,
FFF5,
FFF4,
FFFD,
0000,
0016,
000A,
0021,
000C,
FFF4,
0030,
FFFC,
0001,
FFF3,
001F,
FFEB,
0008,
000A,
0003,
FFFF,
0001,
FFF9,
000A,
0009,
0000,
FFF3,
FFF8,
FFD7,
0008,
FFF8,
0002,
0002,
000C,
0004,
0000,
FFFF,
0003,
0003,
0001,
FFFD,
FFFE,
0003,
FFFF,
0002,
0003,
0003,
FFF0,
0005,
0005,
FFFB,
FFFE,
FFF7,
0001,
0002,
FFFF,
0004,
0004,
0002,
FFFE,
0002,
FFFE,
0000,
0004,
0008,
FFFE,
0000,
FFF0,
000C,
0002,
0005,
0004,
FFF3,
FFFC,
0017,
0000,
FFFE,
FFFB,
000D,
0002,
FFF2,
FFD6,
FFF5,
FFF9,
FFFE,
FFF0,
0000,
FFFE,
0002,
0005,
0005,
FFFF,
001D,
0000,
0005,
FFFE,
FFFC,
FFFF,
0006,
0002,
FFFD,
0001,
0006,
FFF9,
000F,
FFFD,
0002,
FFFE,
0002,
0004,
FFFF,
0012,
FFFA,
0001,
0003,
FFED,
0006,
FFFF,
0003,
0004,
0006,
0002,
0007,
0000,
FFFE,
FFF6,
0014,
0002,
FFFF,
FFFA,
FFFA,
0002,
FFFF,
FFFA,
0002,
0006,
FFEC,
0008,
0006,
FFFD,
0005,
FFF9,
0002,
0003,
0008,
0002,
FFF9,
000D,
0003,
FFFD,
0018,
0006,
FFFB,
FFFD,
0006,
FFFA,
0004,
FFFE,
0007,
0003,
0008,
000C,
0001,
0002,
FFFE,
0008,
FFFD,
000C,
FFFF,
FFFF,
0001,
FFFC,
FFFE,
FFDE,
0021,
0001,
0004,
FFFC,
0021,
FFCE,
FFFB,
0006,
FFEE,
0010,
FFFD,
0000,
000A,
FFFA,
0000,
0002,
0006,
0002,
FFFF,
0002,
FFFD,
FFFA,
0002,
0001,
FFF7,
FFFF,
FFFC,
FFFC,
FFF7,
0003,
0006,
0000,
0004,
0005,
FFFB,
FFF6,
0002,
FFFD,
FFF7,
FFFA,
0002,
0003,
0004,
0008,
FFFD,
0001,
0003,
FFF8,
FFFB,
FFF6,
0019,
FFFD,
0001,
FFDD,
000E,
FFFB,
0008,
000C,
FFD0,
0000,
FFF1,
FFFA,
0008,
0003,
0000,
FFF2,
FFEF,
FFFA,
000F,
FFF4,
000A,
0029,
FFF0,
0026,
0021,
FFEE,
FFF2,
0025,
FFD6,
0002,
0010,
FFE7,
0001,
0011,
FFF6,
FFF2,
FFF1,
0005,
FFF4,
FFE5,
FFFB,
003F,
FFFC,
0005,
0002,
FFEA,
FFEB,
FFF9,
0003,
0001,
FFF7,
FFEC,
FFEB,
FFF7,
FFE8,
FFF4,
0025,
FFFE,
0002,
FFE9,
0002,
0003,
FFFA,
FFFB,
FFF0,
0009,
FFFF,
FFF8,
FFEA,
000E,
000D,
FFF5,
0005,
FFFE,
0009,
001C,
003F,
002E,
000E,
000C,
0009,
0003,
0009,
0005,
0013,
000D,
000B,
0003,
FFEB,
0018,
FFF7,
FFF5,
FFFC,
FFEF,
0014,
FFD3,
FFFC,
0009,
FFEA,
0017,
FFF5,
FFFC,
000E,
0024,
FFFB,
0005,
FFF6,
001A,
FFFA,
000C,
0026,
FFF7,
FFFF,
FFCE,
FFF5,
FFFD,
FFCC,
FFFD,
FFFE,
0002,
000B,
FFF7,
FFFE,
FFE9,
FFFF,
000D,
000D,
0014,
FFF2,
FFF3,
000C,
FFF9,
FFEE,
FFEF,
000B,
FFF9,
002F,
FFCD,
000B,
FFCE,
FFFE,
FFF9,
0004,
000B,
0020,
0000,
FFFB,
0006,
0001,
0002,
FFFC,
001F,
001E,
FFD2,
0019,
000A,
0003,
0010,
FFEF,
0000,
0018,
0045,
0009,
0007,
0001,
0022,
FFCD,
001A,
001A,
FFF1,
FFF4,
002C,
0003,
FFFC,
FFEF,
0021,
0001,
FFF1,
0036,
0008,
FFF8,
0002,
FFDB,
0009,
000F,
FFFB,
FFF2,
FFEE,
0005,
000B,
FFFA,
0009,
FFEA,
0007,
FFF6,
0001,
0019,
000A,
000C,
FFFD,
FFFD,
FFF6,
FFFA,
FFF5,
000C,
FFED,
0014,
000F,
FFFA,
0008,
FFFA,
FFF1,
FFF8,
FFF5,
FFE9,
FFDB,
FFEC,
FFFD,
0006,
FFF9,
FFF7,
0002,
FFFE,
FFFD,
FFEF,
FFF9,
0004,
FFFF,
0019,
FFF2,
001C,
000D,
0005,
0008,
000B,
FFDC,
FFFD,
FFF7,
000B,
000C,
0025,
0002,
FFFB,
FFE4,
0001,
FFF0,
0003,
FFFF,
0009,
FFFA,
0008,
FFDA,
0001,
FFF3,
0003,
FFF1,
0010,
0004,
0001,
0010,
0019,
000A,
0003,
0011,
0013,
FFF9,
FFF7,
0001,
FFF4,
FFFF,
FFFB,
FFF9,
0022,
000D,
0006,
FFFC,
FFEE,
0006,
FFE7,
0007,
0015,
FFFE,
FFF5,
FFF5,
FFEC,
FFFD,
FFFF,
FFD8,
0019,
FFFF,
FFF8,
0015,
FFFC,
FFF8,
000D,
001B,
000A,
FFF3,
FFFC,
000E,
0009,
000A,
0001,
0005,
FFFD,
FFF7,
0003,
0014,
0014,
001C,
0000,
FFFA,
FFFF,
000D,
FFF3,
000B,
FFF6,
FFF6,
0013,
FFE4,
FFE9,
0001,
0000,
FFE3,
0004,
FFFA,
FFF8,
FFF9,
FFF0,
000D,
FFE4,
FFDB,
FFE6,
0006,
FFFA,
FFFD,
0002,
0006,
0004,
000F,
FFFB,
0004,
000C,
001E,
FFF5,
FFDB,
000E,
FFE2,
FFFE,
0010,
001E,
0026,
0000,
FFEF,
0020,
FFF5,
0001,
FFEF,
FFF6,
FFE2,
000F,
FFF3,
0002,
FFF1,
FFF8,
FFFD,
000C,
0001,
0005,
FFFC,
0007,
0000,
002A,
0000,
FFFF,
000A,
FFEA,
FFF0,
FFF7,
FFE8,
0002,
0014,
0007,
FFE9,
FFFF,
0009,
FFFB,
0002,
0004,
0001,
FFFB,
FFF9,
0006,
0012,
0001,
FFFD,
FFFC,
FFF8,
FFF7,
0004,
FFFE,
0006,
0014,
0005,
0005,
FFF9,
0005,
0000,
FFFE,
FFF4,
0000,
0003,
000C,
FFF6,
FFFA,
FFF9,
0011,
FFFD,
FFFD,
0003,
FFF4,
FFFB,
FFFC,
0003,
0001,
0013,
0000,
0004,
0011,
FFF9,
FF7A,
0000,
000F,
0002,
000C,
0020,
0009,
FFF7,
0003,
0004,
0005,
FFFF,
FFF8,
0003,
0012,
FFF9,
FFF0,
FFF7,
0006,
FFFC,
FFFD,
FFFD,
0004,
FFF4,
FFF6,
0000,
FFF3,
0005,
FFFB,
0010,
0001,
0000,
FFFC,
0014,
0003,
0011,
FFFF,
0003,
FFF3,
0005,
0001,
0003,
0005,
0007,
0002,
000F,
0006,
0003,
FFF8,
FFEF,
FFF9,
0001,
FFFF,
FFF9,
0002,
0001,
FFFF,
0003,
0004,
FFFE,
FFF6,
FFFE,
0005,
FFF1,
0008,
000C,
FFFF,
FFFA,
0000,
000A,
FFF9,
FFF6,
FFFE,
FFE2,
0005,
FFF1,
000A,
FFFF,
0002,
0006,
FFFA,
0005,
FFF9,
FFF9,
000F,
000B,
001B,
FFF4,
0002,
0009,
FFF6,
000D,
FFEF,
0019,
0006,
0012,
0000,
0000,
FFF8,
0001,
0008,
FFF1,
0007,
0006,
FFFC,
FFE1,
000A,
FFF8,
FFFE,
000B,
FFF9,
0002,
0008,
FFFF,
FFF7,
FFF6,
0002,
FFF5,
FFF7,
000C,
FFFC,
0003,
0004,
0009,
0010,
FFEF,
000C,
FFFD,
FFFD,
000C,
0000,
0005,
FFF5,
0008,
0016,
FFFF,
FFFC,
FFFA,
0018,
FFFA,
000B,
0002,
FFF1,
000A,
000A,
FFEA,
000B,
0037,
FFEE,
FFF7,
FFFD,
FFC5,
FFE6,
FFFF,
FFF8,
0003,
000A,
FFFD,
FFFB,
0001,
FFFC,
0026,
001A,
FFFF,
0004,
0002,
002F,
0003,
0007,
FFFD,
0001,
FFE5,
0002,
0001,
FFF6,
001D,
0019,
0015,
FFF9,
FFF5,
FFEF,
0006,
000D,
FFF0,
FFF9,
000B,
0001,
000D,
FFF8,
000D,
0006,
0005,
FFF9,
FFF2,
FFF3,
0000,
FFF6,
FFE9,
0010,
0009,
FFFA,
FFEF,
000C,
FFFF,
FFEB,
FFFF,
0004,
0002,
0026,
0006,
FFF5,
0006,
FFE6,
FFF9,
0009,
0005,
FFFE,
FFDB,
FFFA,
FFFC,
FFE1,
000D,
FFFA,
000B,
FFF2,
FFEE,
FFF5,
000F,
FFFE,
000B,
0009,
000A,
0008,
0014,
0017,
FFF9,
000D,
0005,
FFFF,
FFF7,
0000,
0001,
0004,
0008,
000A,
FFED,
0008,
0020,
0031,
0000,
FFFF,
0006,
000B,
FFF5,
FFF6,
FFFE,
FFF8,
FFEB,
0002,
FFF1,
FFF3,
FFFF,
0001,
0005,
FFF7,
FFFE,
FFFF,
001E,
FFF3,
FFFF,
0012,
FFFE,
0002,
0006,
0001,
0007,
FFD7,
0007,
FFFE,
0004,
FFF3,
000D,
FFF4,
0004,
0002,
0001,
FFFE,
0005,
0006,
0010,
FFFC,
0001,
FFF1,
000B,
FFFA,
0002,
0006,
000D,
0007,
FFED,
FFFB,
FFF8,
FFF7,
FFF9,
FFF0,
FFF9,
0013,
0000,
FFEC,
0013,
0007,
0001,
0008,
0001,
FFFC,
FFFB,
001B,
000B,
0022,
0003,
FFFE,
FFF4,
0002,
FFEE,
FFE9,
FFF6,
001C,
FFFE,
FFFA,
FFCB,
FFFF,
002C,
FFF7,
FFF1,
0001,
0007,
FFF6,
000B,
FFEA,
FFFD,
001A,
0001,
0001,
000B,
FFEC,
0002,
FFF7,
0004,
FFFB,
0002,
FFFA,
FFEF,
0001,
FFE7,
0009,
0001,
FFFF,
0016,
000E,
0005,
FFF7,
FFF9,
FFF6,
FFF7,
0005,
0000,
0004,
0018,
FFF3,
0001,
FFF5,
0015,
0000,
0026,
0007,
FFF6,
FFFF,
FFFA,
0003,
0002,
FFF0,
0003,
0002,
0003,
FFED,
FFF2,
FFFD,
0002,
FFED,
0008,
0008,
FFE6,
0002,
001A,
FFFE,
0007,
FFF3,
FFFA,
FFF1,
0002,
000E,
FFFC,
FFFE,
FFFD,
000A,
0008,
0007,
0000,
FFF8,
FFFC,
FFED,
0002,
FFE9,
FFF6,
FFFD,
FFF5,
FFFF,
FFE4,
0000,
0000,
FFFB,
000F,
0001,
0002,
0007,
0002,
000A,
FFFF,
FFE4,
FFFC,
FFF8,
FFF1,
FFF7,
FFF9,
0002,
FFF5,
FFFC,
0001,
FFF6,
FFE5,
0003,
000A,
0004,
0009,
FFFC,
0007,
FFDB,
000B,
FFF2,
0005,
0000,
0001,
000A,
FFFD,
0005,
FFE6,
FFFD,
FFFB,
0007,
FFFC,
FFFE,
0008,
001B,
0003,
FFFF,
FFED,
FFF6,
FFFD,
FFFA,
FFFF,
FFFD,
FFF8,
0002,
0008,
FFEE,
FFFE,
0004,
0002,
0000,
0024,
FFF6,
001D,
FFF7,
0000,
0001,
0005,
0001,
0001,
0015,
FFFE,
FFFF,
0004,
FFF7,
0008,
0001,
FFFA,
0002,
FFFC,
0005,
FFF7,
000E,
0014,
FFFF,
FFF8,
FFEF,
0008,
FFFE,
0001,
FFFE,
0001,
0016,
0008,
FFF1,
000A,
FFFB,
0008,
FFFB,
0000,
FFFB,
FFFF,
FFF6,
0012,
0007,
000C,
0004,
0004,
FFF7,
FFFA,
000C,
0006,
FFF5,
000F,
FFFF,
0001,
FFEA,
0006,
FFEA,
FFF3,
0000,
000A,
FFFC,
FFF9,
0002,
FFE7,
FFFE,
0020,
FFD3,
0008,
0015,
FFEA,
0018,
FFFC,
FFFA,
000B,
FFE0,
FFED,
0000,
FFF9,
FFF8,
FFF8,
FFE7,
FFE9,
0034,
001F,
FFFA,
FFFE,
0014,
FFF9,
FFFD,
FFFE,
0001,
000C,
FFF9,
FFF5,
0000,
FFF8,
FFD7,
0021,
FFF5,
0005,
FFDD,
000E,
0005,
FFFE,
FFFC,
FFE7,
FFF5,
FFFB,
FFF5,
FFFC,
0035,
0014,
0004,
FFF9,
000D,
0004,
0011,
002F,
0003,
FFF2,
FFFC,
0001,
000F,
FFF9,
FFFC,
000C,
0003,
FFF1,
001D,
FFE7,
0004,
0002,
0007,
FFFE,
0003,
0006,
FFF8,
0003,
0015,
FFF7,
0003,
FFF9,
0008,
FFD1,
FFD4,
0000,
0005,
0016,
001B,
FFFC,
0007,
0013,
0014,
FFFA,
FFFB,
0016,
FFF8,
0007,
000C,
FFFD,
FFF7,
0009,
FFF7,
FFFD,
001A,
FFF4,
0000,
FFF7,
0015,
FFC1,
0007,
FFE9,
0011,
0003,
FFDF,
000E,
0002,
0015,
FFFB,
FFD9,
FFE2,
FFF4,
FFFF,
FFDE,
FFFC,
FFF3,
0011,
FFFA,
FFF4,
0006,
0004,
FFD2,
0019,
FFE5,
FFF5,
0002,
FFE7,
002B,
0003,
000E,
001D,
FFD4,
000B,
FFFA,
0016,
0005,
FFE7,
FFFD,
FFF6,
FFFA,
000F,
0002,
0020,
0005,
FFFB,
FFEB,
FFFB,
0002,
0002,
0002,
FFE8,
FFF3,
FFFD,
0004,
FFF9,
FFFA,
0008,
0000,
FFF6,
0019,
0013,
FFF6,
FFFC,
0003,
FFFA,
FFEC,
000D,
0012,
FFF0,
0005,
000C,
000A,
0008,
001B,
0010,
FFF2,
FFFC,
0009,
FFFC,
FFED,
0005,
0029,
FFFD,
FFF2,
FFF2,
FFF6,
FFFB,
0009,
000C,
FFFD,
FFF9,
FFEC,
FFF0,
0017,
000F,
0004,
FFF5,
0001,
FFFE,
FFF9,
0005,
0005,
0005,
FFEE,
FFFA,
0005,
FFE7,
FFFF,
FFFF,
0006,
FFFE,
FFFD,
FFFE,
0005,
0008,
FFFC,
000F,
FFFD,
FFF3,
0000,
FFF5,
0000,
FFF7,
FFF4,
0005,
FFF5,
FFFD,
FFEE,
000D,
0010,
0009,
0007,
FFEF,
0000,
FFEF,
000A,
0003,
0011,
FFFA,
000E,
FFF5,
0016,
000D,
000D,
0017,
0006,
0003,
FFFB,
0002,
0000,
FFFF,
FFFA,
000A,
FFF7,
0003,
FFFF,
000B,
FFFB,
FFDD,
000E,
FFFB,
FFF8,
FFFE,
0018,
000E,
0016,
0006,
0000,
0013,
FFF2,
0007,
FFE8,
FFE4,
FFFC,
FFD7,
0003,
FFFC,
FFFE,
FFF3,
000C,
0000,
0000,
0011,
0006,
FFFA,
FFF0,
FFFD,
000F,
FFF5,
0002,
0009,
FFFF,
0024,
0002,
0000,
0001,
0002,
001E,
0009,
FFE7,
0015,
FFEB,
FFFC,
000D,
0004,
0001,
0003,
000D,
FFF9,
FFFF,
0013,
FFF6,
0011,
0002,
000A,
0010,
FFF4,
FFF9,
0001,
FFFF,
0003,
0000,
FFF4,
FFE8,
FFFE,
000C,
0005,
FFEA,
0011,
0004,
0004,
0011,
FFEA,
FFFE,
FFFF,
FFFB,
FFF9,
FFED,
FFFC,
FFF2,
FFF6,
FFF2,
0000,
0005,
0012,
FFFF,
FFF8,
FFEA,
0004,
000E,
0009,
FFE4,
0005,
FFF9,
0008,
FFF9,
FFF7,
FFFD,
FFF3,
FFFC,
FFF7,
FFFF,
001D,
FFFD,
0024,
0001,
0003,
0007,
0013,
0009,
000E,
FFD2,
000B,
FFD8,
000E,
FFF4,
FFFE,
0006,
0035,
0001,
0012,
FFFF,
0005,
0002,
FFF6,
0039,
0008,
001A,
001D,
FFFC,
FFF5,
FFF9,
FFFB,
0006,
0000,
FFED,
FFFD,
000E,
FFF0,
0002,
0010,
FFF1,
FFF5,
000F,
0004,
0002,
0001,
000E,
FFE1,
FFFE,
0015,
0006,
FFF3,
0000,
0005,
000A,
FFEA,
FFFC,
0002,
0006,
FFF2,
0006,
0002,
000C,
0009,
FFF6,
FFF6,
FFF1,
001F,
FFE2,
FFFF,
0007,
001A,
0001,
0002,
0007,
0001,
FFFD,
0000,
000A,
FFE7,
000E,
0000,
FFF0,
FFF9,
0003,
FFF5,
0006,
0015,
0023,
FFF0,
0006,
0005,
FFEE,
0000,
000F,
001E,
FFFF,
FFF6,
0007,
FFDF,
FFF9,
FFE5,
0022,
FFED,
FFFC,
0014,
FFF7,
FFFB,
FFF1,
FFF5,
FFFC,
FFFC,
FFF0,
0008,
0001,
0002,
FFC4,
FFFF,
FFF7,
001F,
FFF7,
0004,
FFFF,
FFF2,
FFF3,
0006,
0005,
FFEE,
0002,
0000,
FFFA,
FFC8,
0007,
0006,
0019,
FFFC,
FFE4,
0022,
FFFC,
FFEE,
001E,
0027,
0009,
0023,
0002,
FFFB,
0001,
001E,
FFF8,
0000,
0007,
FFF6,
FFFD,
FFFE,
FFFE,
0009,
0005,
FFE8,
FFFA,
FFF0,
0002,
FFF7,
FFEB,
FFF1,
FFFB,
0000,
0007,
0011,
FFF8,
FFF2,
FFF4,
FFC6,
0015,
FFFF,
000F,
FFFF,
0005,
FFF8,
FFEF,
0005,
000E,
000C,
0006,
FFFA,
0001,
FFFC,
0002,
0007,
FFF3,
0013,
FFF2,
FFEF,
FFFA,
0006,
0001,
0001,
0007,
0001,
0000,
FFFB,
0000,
FFFB,
FFFD,
FFFE,
0003,
0000,
FFFE,
FFFE,
FFFE,
0002,
0003,
0000,
0001,
0005,
FFF9,
FFFD,
0000,
0003,
0003,
FFFB,
0000,
0003,
FFFF,
0002,
FFFE,
FFF9,
0000,
0009,
0006,
FFFE,
FFF6,
0007,
FFFD,
FFFF,
0002,
FFF8,
FFFF,
0007,
FFFF,
0001,
0000,
FFFF,
0009,
FFF8,
001D,
FFF7,
FFFE,
FFFF,
FFFD,
0003,
FFFB,
0000,
0003,
FFFC,
FFFE,
0005,
0001,
FFFE,
0001,
0000,
0001,
FFF9,
FFF8,
0002,
FFFD,
0004,
0002,
FFFE,
0002,
FFFF,
FFFF,
FFFB,
0000,
0006,
0006,
0003,
0001,
0001,
FFFF,
FFFF,
0000,
FFFF,
0002,
FFFC,
FFFB,
0004,
FFFD,
0004,
FFEE,
FFF5,
0001,
0004,
FFFE,
0005,
0000,
FFFE,
0004,
FFFA,
0004,
FFF7,
0006,
FFFC,
0002,
0004,
FFFA,
FFFB,
FFFF,
0033,
FFFE,
0002,
0005,
0000,
FFFE,
0009,
FFF9,
0000,
0003,
0003,
FFFE,
0002,
0000,
0002,
0004,
0002,
FFFC,
FFFC,
FFFB,
0003,
FFFD,
FFFF,
0001,
0004,
FFFF,
FFFF,
0002,
FFFC,
FFFD,
0006,
FFFA,
FFF9,
0000,
0006,
000E,
FFFF,
0003,
FFF6,
FFF8,
FFFF,
0000,
FFE2,
0000,
FFFF,
FFFF,
FFFE,
0002,
FFFF,
0003,
000B,
0004,
FFFD,
FFFD,
0002,
FFFF,
0001,
0000,
FFF1,
0003,
FFFE,
0000,
FFFA,
0003,
0006,
FFF7,
0003,
0001,
0000,
FFCB,
0001,
0002,
0000,
0001,
FFFE,
FFFC,
FFFE,
FFFE,
0006,
FFFA,
FFF8,
0013,
FFFA,
0000,
000E,
000C,
0006,
FFED,
FFF9,
0011,
0006,
0016,
FFF8,
FFF7,
FFEA,
0005,
000C,
0000,
0032,
FFFF,
FFFB,
FFEC,
0003,
0006,
FFEC,
FFFF,
FFBE,
FFF4,
FFE5,
0002,
001D,
FFED,
0010,
0001,
FFF7,
FFF3,
FFFE,
FFDC,
0006,
FFFD,
0000,
FFF1,
000A,
0004,
0025,
FF9A,
0030,
000C,
FFE8,
0001,
0003,
0009,
FFE5,
FFFC,
003F,
0000,
0004,
FFE7,
000C,
FFF4,
FFF7,
FFD1,
FFFE,
0034,
0025,
FFFB,
0003,
FFF9,
0013,
0017,
0001,
FFFF,
000C,
005A,
0004,
0004,
FFF3,
FFFA,
000D,
FFE2,
FFFB,
000E,
FFE1,
FFF7,
000A,
FFDE,
0021,
FFF5,
FFF6,
0043,
0005,
0021,
FFCE,
FFF8,
FFFB,
FFF2,
FFF1,
0008,
0001,
FFF8,
000A,
0001,
FFF5,
001E,
FFFE,
0005,
FFF4,
FFDA,
FFF3,
FFF3,
0027,
FFF3,
0002,
0001,
0004,
000C,
0045,
FFF5,
0005,
FFFE,
FFDA,
FFF9,
FFE8,
FFEF,
FFFF,
0012,
FFB8,
0012,
0012,
0006,
000C,
001E,
0001,
FFFA,
FFC9,
FFFE,
000A,
0021,
FFDF,
0048,
FFFD,
FFF4,
000B,
FFFF,
001B,
FFFD,
0003,
000B,
FFCD,
0000,
0002,
0010,
0035,
FFF9,
FFFF,
FFEF,
003D,
FFE4,
0016,
FFF2,
FFC7,
0008,
FFFB,
FFFB,
FFDD,
FFEA,
FFFC,
0005,
0038,
000E,
0008,
0023,
FFFD,
FFFF,
FFF5,
FFF0,
FFF7,
FFE7,
0043,
FFF9,
002F,
FFFF,
FFF8,
FFFD,
FFFB,
0000,
FFFB,
FFE7,
FFE2,
FFF6,
0013,
002F,
0001,
FFF9,
000F,
0005,
FFFC,
0031,
0008,
0003,
FFFF,
0014,
FFFF,
0002,
0004,
FFFC,
0003,
001C,
FFF7,
0001,
0002,
000B,
0005,
FFFE,
FFFF,
0007,
0004,
FFEA,
0000,
0004,
0004,
0002,
0002,
FFFA,
000F,
FFDB,
FFFF,
0002,
FFE8,
FFFD,
FFFC,
0008,
0002,
0001,
000D,
FFFA,
FFFF,
0001,
FFFF,
001A,
0001,
000A,
0015,
0006,
0005,
FFC3,
0000,
0000,
000A,
0001,
0033,
FFFE,
FFE8,
000D,
000D,
FFFE,
0009,
FFFE,
000B,
FFFD,
FFFF,
FFFD,
FFFB,
FFF0,
FFEE,
0000,
FFDE,
0005,
0003,
0007,
0022,
FFED,
0009,
FFFE,
0005,
FFFC,
000A,
0004,
0002,
000C,
0004,
0002,
0011,
000E,
0002,
0005,
FFEC,
0001,
FFFE,
FFEE,
FFF6,
FFFD,
FFFF,
FFEB,
0013,
0004,
0019,
FFFF,
0000,
0005,
FFFF,
FFD6,
FFF5,
FFF6,
0000,
0005,
0015,
0020,
0000,
FFF2,
001E,
FFF1,
0003,
0004,
001C,
0005,
001D,
FFFD,
FFF9,
FFF2,
FFFD,
FFF0,
FFF2,
0001,
0004,
FFFB,
0007,
000E,
000F,
0004,
FFF9,
0009,
0001,
0021,
FFD8,
000C,
0003,
0006,
FFFA,
0012,
0002,
000F,
0024,
FFFC,
0006,
FFFF,
FFFF,
FFF8,
0000,
000C,
FFFC,
0000,
000B,
FFFC,
000C,
FFBE,
0001,
FFFF,
0004,
0003,
0003,
0006,
FFD1,
0005,
FFEC,
FFF5,
0004,
0003,
001B,
FFDE,
FFFA,
0003,
0006,
FFFB,
0001,
000E,
FFBC,
0008,
000A,
0005,
FFFC,
0004,
0003,
002A,
FFE6,
FFF7,
0011,
FFF0,
000C,
FFE3,
000E,
0002,
FFFF,
001B,
000C,
FFFB,
000C,
FFFF,
FFFE,
000F,
0019,
0000,
0009,
000F,
000C,
FFDE,
001A,
0020,
0017,
0013,
FFF1,
FFDF,
0001,
0002,
0011,
0001,
FFDA,
FFFE,
FFD7,
FFD7,
FFFE,
FFED,
FFFE,
FFFB,
FFF8,
0017,
FFFC,
FFEF,
FFF4,
0000,
0005,
FFFB,
0006,
0003,
0008,
FFFC,
FFF5,
FFF1,
000D,
0013,
FFFE,
0009,
FFFC,
001D,
FFFE,
FFFB,
0006,
FFF2,
000E,
FFFE,
FFF5,
0008,
FFE1,
FFE5,
FFEA,
0010,
0029,
FFFE,
0002,
FFF5,
000C,
000C,
FFFB,
0005,
0006,
FFEF,
000A,
0005,
0018,
FFFF,
FFF3,
FFF1,
FFFA,
0006,
000E,
001F,
0023,
FFFB,
000A,
FFEF,
0018,
FFFB,
0018,
FFEF,
FFFA,
FFF7,
000F,
FFF2,
0006,
0000,
000B,
000E,
FFF2,
0005,
0005,
FFF3,
FFFD,
FFF9,
FFF9,
FFF7,
FFF5,
FFD9,
FFF8,
FFF6,
001C,
0006,
0006,
0000,
FFF8,
0001,
0002,
FFF1,
0010,
FFEC,
0001,
000B,
000B,
FFF0,
0009,
FFFB,
FFED,
000B,
0000,
FFED,
0012,
0005,
0006,
FFEC,
0000,
FFFA,
000D,
000C,
FFF2,
FFFD,
001F,
0000,
FFF9,
000D,
0002,
FFF6,
FFE4,
FFFC,
FFF6,
0008,
0015,
000A,
FFFA,
000B,
FFF8,
000B,
FFE2,
000B,
000A,
FFED,
FFF9,
FFDF,
FFF0,
0007,
0014,
FFF7,
FFFD,
FFF7,
0022,
FFFA,
0031,
0005,
FFF6,
FFFD,
FFF6,
0010,
0000,
FFF8,
0005,
FFE7,
000A,
0009,
FFF9,
0012,
000D,
FFEF,
FFFB,
FFEF,
FFF9,
0007,
FFDB,
0004,
0001,
002F,
0014,
0001,
FFFC,
FFFA,
FFF8,
0006,
0013,
0014,
0005,
001E,
001E,
000F,
0028,
FFF7,
FFEA,
0023,
0012,
0005,
FFE5,
FFD7,
FFFC,
0002,
000A,
000E,
FFF4,
FFDF,
FFEF,
0005,
0003,
0020,
FFF9,
0022,
FFE5,
0013,
001B,
0005,
FFF6,
0001,
FFF8,
FFEC,
FFF2,
FFF9,
0018,
0002,
FFE8,
FFD4,
FFF6,
FFED,
FFFA,
0019,
0000,
0009,
FFF7,
0002,
FFF6,
0004,
0004,
FFED,
FFF9,
0002,
0000,
0020,
0002,
0016,
0021,
FFF9,
FFF0,
FFE2,
FFF1,
0000,
FFF1,
FFFB,
001F,
FFE3,
FFEA,
FFFF,
FFF8,
0000,
FFFD,
FFFC,
0037,
0000,
FFFA,
000C,
FFED,
FFFF,
FFFA,
FFF4,
FFF2,
FFF5,
0008,
FFFE,
FFFC,
000A,
FFF4,
0013,
0000,
000D,
FFEC,
000F,
0000,
000F,
FFFC,
0001,
0010,
000F,
0000,
FFF6,
FFED,
0005,
FFFB,
0021,
000B,
0009,
002C,
0011,
FFF4,
0000,
000B,
FFF4,
0006,
FFFB,
0004,
0003,
0005,
0019,
FFC4,
FFDE,
0003,
000E,
FFFD,
FFFF,
0000,
0005,
FFF9,
0013,
0000,
FFF7,
0002,
FFE5,
FFE7,
FFEE,
0011,
FFEB,
0016,
FFE8,
001B,
FFFF,
FFF9,
FFEF,
0009,
0009,
FFF8,
FFEA,
001A,
FFDD,
0001,
0012,
0000,
0008,
0001,
FFFD,
0001,
000B,
0006,
FFF6,
FFEE,
FFF9,
FFFA,
0002,
0004,
0001,
FFFD,
0000,
001E,
0003,
0033,
FFFB,
FFFD,
000E,
FFFF,
FFE7,
000C,
000A,
FFF8,
0020,
0004,
FFF1,
0007,
0013,
000D,
0003,
0001,
FFFA,
000F,
FFE0,
FFF4,
FFFB,
FFF8,
FFF7,
001C,
0009,
0008,
FFF1,
001D,
0008,
FFF2,
0004,
0007,
000A,
FFE2,
FFF0,
FFFA,
FFFC,
0017,
000F,
FFF1,
000E,
000F,
FFEF,
0001,
FFFE,
FFFC,
0000,
0011,
0000,
0012,
0003,
0000,
FFFC,
FFEE,
0006,
FFE5,
FFEA,
FFF5,
001A,
FFEF,
000A,
FFF9,
0008,
FFF7,
FFF2,
FFE8,
FFFD,
0008,
FFFF,
FFFD,
0009,
FFF0,
FFEB,
FFFC,
FFF8,
0008,
FFFA,
0012,
FFE7,
0006,
0000,
000D,
0006,
0005,
FFEB,
FFFA,
0002,
FFF0,
FFF3,
FFFA,
0015,
FFDA,
000F,
FFFD,
000A,
0003,
FFE9,
001A,
FFF2,
000C,
FFF3,
FFEB,
001D,
0005,
FFF5,
FFEA,
0001,
FFF3,
FFFA,
FFFF,
0011,
FFF9,
0008,
0012,
FFFD,
0001,
0012,
0002,
0009,
000A,
0001,
FFF8,
000B,
0008,
FFE8,
0008,
FFFE,
0001,
0000,
FFFD,
FFEE,
FFFD,
000A,
0009,
FFF1,
FFFA,
FFFA,
FFFC,
0009,
0002,
FFFE,
0000,
FFFD,
FFFA,
000E,
0008,
FFF9,
0004,
FFFC,
001E,
FFF5,
0002,
000E,
0004,
FFFC,
FFF6,
000F,
0009,
001D,
0013,
FFF7,
FFFD,
0011,
FFFD,
FFEC,
FFF6,
FFED,
FFFE,
FFF0,
FFF1,
0012,
FFFC,
0003,
FFF9,
0000,
FFF4,
FFFF,
0022,
0018,
000D,
FFE9,
0018,
000E,
FFDD,
0003,
FFFE,
0012,
000A,
FFF7,
0011,
0001,
000B,
0017,
FFFF,
0007,
0000,
FFF7,
FFEB,
FFFF,
0001,
FFFB,
FFE9,
FFFF,
FFFB,
FFEC,
FFFA,
FFFF,
FFF9,
FFF0,
FFFD,
0014,
FFF3,
000E,
0003,
0006,
0020,
0008,
FFF9,
000E,
FFFB,
FFF6,
FFF4,
0009,
FFF9,
FFF5,
0007,
FFFD,
0004,
FFF0,
0003,
FFE6,
FFE6,
FFFA,
0006,
0000,
FFFF,
0003,
FFE4,
FFF5,
0012,
0000,
FFEA,
0017,
FFED,
FFFA,
0005,
FFEE,
0002,
0015,
FFF7,
0010,
FFFD,
000B,
FFE1,
FFF9,
001F,
0007,
FFED,
FFFB,
0002,
FFF2,
FFFE,
0007,
FFFB,
FFFD,
0016,
FFD1,
0015,
FFFC,
FFF8,
FFFF,
FFFB,
0000,
FFF7,
FFD2,
0009,
FFFC,
FFFA,
000E,
FFF4,
0003,
FFFE,
FFFD,
FFEE,
FFFE,
FFEF,
FFF8,
0007,
FFF8,
0029,
FFFE,
FFF8,
FFEB,
0011,
FFFE,
FFFA,
0001,
FFF3,
0006,
FFCF,
FFFA,
FFFA,
0000,
FFFB,
FFD9,
FFFC,
0012,
0003,
FFFC,
FFED,
0018,
0001,
FFFF,
FFFC,
FFF4,
0007,
0008,
FFFC,
FFFD,
FFED,
FFFF,
0002,
000A,
FFF9,
001A,
FFE7,
FFFF,
0003,
FFDF,
FFFA,
0010,
0007,
FFFF,
FFFF,
0007,
0000,
FFFC,
FFE2,
FFED,
FFF7,
0006,
FFEE,
0005,
0000,
FFF8,
0002,
FFE1,
0002,
0010,
FFF8,
0010,
FFFF,
FFF6,
FFF3,
0005,
0007,
0005,
002B,
FFFE,
FFF8,
FFF7,
FFF9,
FFF9,
0005,
FFFF,
0024,
FFF7,
FFE1,
FFFB,
FFEB,
0015,
0001,
0023,
FFFE,
FFFD,
000C,
FFF8,
FFF8,
FFFC,
000E,
0007,
000D,
FFFD,
FFFA,
000C,
0004,
FFFD,
FFF8,
FFF5,
FFF7,
000B,
FFF0,
0000,
0001,
000D,
000E,
0008,
0001,
FFF5,
FFF0,
0007,
0009,
0008,
FFEE,
0001,
0005,
0023,
0005,
FFF7,
FFDA,
FFE0,
FFF6,
0007,
000B,
0005,
000A,
FFFD,
0009,
FFFC,
0005,
0003,
FFF2,
FFEE,
000A,
0011,
0003,
FFCF,
0000,
FFEE,
FFFD,
FFE5,
000B,
FFF7,
FFF0,
FFE0,
FFF7,
0001,
FFF8,
002A,
FFFB,
0002,
001B,
FFFB,
FFF0,
0012,
0009,
0005,
0001,
0003,
0012,
0008,
0004,
FFFA,
0009,
FFFA,
FFEA,
0022,
0017,
0006,
FFFB,
FFE4,
FFFF,
FFDE,
FFF7,
0027,
FFFD,
FFFB,
FFFC,
FFF3,
0012,
0008,
000C,
0010,
0012,
0007,
0001,
0005,
FFE7,
FFF5,
FFE2,
FFF8,
FFFC,
000A,
000A,
0000,
001A,
0003,
FFE0,
0004,
FFE4,
FFFC,
FFF8,
FFF5,
0020,
0010,
0023,
FFFF,
FFE3,
FFF2,
FFFF,
FFDC,
FFF9,
0001,
0003,
000E,
FFFF,
0003,
FFFA,
0016,
0010,
FFED,
FFFC,
FFF9,
FFE1,
FFD9,
0011,
FFFD,
FFF2,
FFFA,
FFF9,
FFF9,
FFF7,
0000,
0003,
0009,
000C,
0007,
0008,
0007,
0006,
FFE8,
0014,
0004,
0001,
0006,
000A,
0008,
0002,
FFFD,
0009,
001C,
FFFB,
000A,
FFF1,
001C,
0005,
FFEA,
001A,
0027,
FFEB,
000F,
FFF1,
FFFD,
FFF5,
FFFE,
000A,
FFFE,
0007,
FFFF,
002E,
FFFE,
0006,
0009,
000A,
FFF5,
FFF4,
0007,
FFF7,
FFFF,
0017,
FFF4,
FFFE,
FFFC,
0018,
FFCC,
000C,
FFFA,
FFF0,
FFFF,
FFFD,
0017,
FFF0,
0029,
001E,
0004,
FFFF,
000B,
FFF9,
0002,
FFF6,
FFEF,
000E,
FFF9,
FFFD,
0000,
0003,
FFFE,
FFF9,
FFF3,
0007,
FFE0,
FFEB,
0002,
0016,
FFEC,
000C,
0004,
FFEB,
0001,
0024,
000F,
0009,
0012,
FFF7,
0013,
FFF4,
0005,
0043,
0010,
0002,
0016,
0002,
FFF7,
000D,
FFD9,
004B,
0003,
0002,
0001,
FFFE,
0029,
000A,
000A,
FFE2,
0000,
FFEE,
FFF8,
0004,
FFF6,
FFF6,
FFE3,
FFF5,
FFF6,
0010,
0016,
0003,
FFFF,
FFFB,
FFDF,
000A,
000C,
0005,
FFDE,
0000,
0024,
FFF6,
FFEF,
FFFA,
000C,
001A,
FFF1,
FFF1,
0007,
FFE9,
0025,
001D,
FFFF,
000B,
FFD1,
0012,
001E,
FFE9,
FFFD,
FFFC,
0002,
0028,
FFFF,
FFFC,
FFF1,
FFEA,
0009,
0009,
FFC2,
0001,
0016,
0005,
FFEB,
000B,
FFF7,
FFEE,
0000,
0000,
FFF1,
0003,
FFFF,
001B,
FFFC,
0008,
FFFA,
0028,
FFFB,
FFFE,
FFB0,
FFFF,
FFEA,
FFDE,
FFF2,
FFFA,
000F,
FFFA,
0029,
FFE9,
FFEC,
FFFD,
FFFC,
FFF8,
FFD4,
0009,
0024,
0004,
FFF4,
FFF9,
0007,
FFE5,
FFFB,
0002,
000C,
000D,
FFFB,
FFFE,
FFF9,
FFFC,
FFE6,
000E,
001D,
FFEB,
FFFD,
FFFC,
FFF0,
FFE6,
0006,
0002,
0000,
FFFA,
0014,
FFD9,
FFFF,
FFFE,
FFE5,
0000,
0012,
FFF0,
0000,
FFFD,
0018,
FFFA,
0000,
0003,
FFD1,
FFE9,
0001,
000D,
0001,
FFF5,
0002,
000B,
FFF8,
FFD6,
FFFD,
0005,
0005,
FFF1,
0013,
FFFA,
0014,
001E,
000E,
FFF6,
0009,
0001,
FFE2,
FFF4,
0008,
0006,
FFF8,
FFFC,
FFF6,
0013,
0000,
0002,
FFE2,
0007,
FFFE,
FFFF,
FFF2,
0007,
FFEE,
FFF9,
FFF2,
FFFD,
0006,
FFF9,
0008,
FFF4,
FFE1,
FFFD,
0008,
0006,
FFF6,
FFF3,
0003,
000A,
FFF6,
FFFE,
000A,
FFFB,
FFF3,
FFFB,
FFFD,
FFF7,
FFFE,
0004,
0012,
FFFC,
FFF5,
0006,
001B,
FFFC,
FFFE,
FFF6,
000C,
0022,
0000,
0014,
FFFE,
0003,
FFF8,
000D,
0007,
FFFF,
FFE9,
0000,
FFDF,
FFDE,
FFFA,
0003,
FFEB,
0004,
FFCE,
0012,
000D,
FFFE,
0001,
0001,
FFFA,
0004,
FFF3,
FFF9,
FFDE,
0003,
FFF9,
FFE4,
0007,
FFF8,
0006,
0005,
FFFA,
FFF9,
000A,
000E,
000A,
FFFE,
0005,
0003,
FFFD,
000C,
0002,
001C,
000D,
FFED,
0003,
FFEA,
002B,
FFFC,
0005,
000E,
0002,
0008,
FFFE,
000C,
FFFA,
0006,
FFEF,
0002,
000E,
FFF1,
FFEC,
FFF3,
FFFE,
FFF6,
000C,
FFE6,
0002,
0004,
001A,
0000,
0001,
000C,
FFFA,
FFF5,
0009,
FFF5,
0007,
FFFC,
FFDD,
0004,
FFFE,
0003,
000F,
FFFE,
0003,
0008,
FFFC,
0008,
000D,
FFF4,
FFE5,
FFF7,
FFF9,
FFF7,
FFEE,
0002,
FFF0,
000D,
001E,
000C,
000A,
0009,
000C,
FFFF,
0002,
0018,
FFEF,
FFF3,
FFF9,
000F,
FFFC,
0003,
FFF9,
FFF4,
0007,
0003,
FFFD,
0006,
0008,
FFFE,
FFFE,
000C,
FFE1,
0010,
FFFF,
000E,
FFE9,
0008,
FFF2,
0009,
0009,
0005,
FFFD,
FFE1,
0002,
FFFD,
0015,
FFFC,
FFFC,
0009,
FFF8,
0006,
0022,
FFFA,
0014,
000E,
FFF0,
FFFE,
0004,
FFFF,
0009,
0001,
000E,
0001,
0004,
0000,
0014,
FFFB,
FFF7,
000F,
0013,
0002,
0016,
0012,
0002,
FFFD,
000E,
FFFB,
000E,
0023,
FFFD,
0003,
FFF8,
0003,
FFEC,
0015,
0001,
0020,
0016,
0008,
FFDC,
0001,
0003,
FFFE,
FFFA,
FFEF,
0005,
0018,
000C,
0013,
FFFF,
0003,
0001,
000C,
FFE4,
FFFB,
FFE9,
FFE4,
0010,
FFE8,
0001,
0002,
0008,
0011,
FFFE,
002C,
FFDB,
0008,
FFF7,
000B,
FFE7,
0005,
000C,
0004,
000B,
0010,
0008,
FFF3,
0010,
0005,
001E,
FFE8,
0003,
0004,
FFDD,
0021,
0000,
0004,
0004,
0002,
0007,
FFDF,
FFF7,
FFF7,
0004,
0004,
001F,
FFFF,
FFDF,
0000,
FFFC,
FFE6,
001C,
FFFE,
FFFD,
000E,
FFF2,
0005,
0001,
FFE0,
FFFC,
FFF6,
0002,
FFF8,
FFF5,
FFF5,
000D,
0003,
0001,
0004,
0019,
0000,
0011,
FFF8,
0005,
FFFF,
0002,
000A,
FFF0,
FFEA,
FFED,
FFFC,
000B,
FFDD,
0002,
0002,
FFE9,
FFE5,
FFEE,
000B,
FFFC,
0002,
FFF6,
0005,
FFFF,
0003,
0009,
0006,
FFFF,
0004,
0009,
FFFD,
FFFD,
0009,
0007,
0003,
FFFE,
FFEB,
FFFD,
FFEF,
0001,
0001,
FFF5,
FFFD,
0013,
0000,
000D,
FFFF,
0001,
FFF9,
0025,
0024,
0010,
0006,
FFFA,
FFF5,
000A,
FFFE,
FFF0,
0013,
000C,
0004,
0020,
FFF2,
FFFD,
FFFA,
000A,
FFEC,
FFF7,
FFF8,
0006,
000C,
000C,
FFDA,
FFF5,
FFFA,
0002,
FFF4,
0004,
FFF9,
FFF6,
FFF4,
0013,
000A,
000F,
FFF7,
FFE3,
FFEC,
0001,
0013,
FFDE,
FFF8,
0006,
001A,
FFFB,
FFEC,
FFFC,
0007,
0014,
FFF8,
FFDD,
000C,
FFFA,
0008,
0017,
0018,
FFFA,
0004,
0003,
FFF8,
002D,
0002,
FFF6,
FFF6,
FFEC,
0015,
0005,
0002,
FFE7,
FFF8,
FFE2,
FFF2,
000A,
0024,
0004,
000E,
0000,
0008,
0024,
FFF1,
FFF7,
0009,
FFFE,
FFFF,
0021,
0008,
FFED,
FFEC,
0009,
000F,
FFEE,
001A,
FFF4,
0010,
FFF5,
FFF3,
FFF4,
0005,
001C,
000C,
0000,
0015,
0009,
0000,
0006,
0025,
0008,
FFFD,
FFFB,
FFFF,
0009,
0002,
FFD9,
FFF6,
0000,
FFE6,
001F,
000B,
FFFF,
000D,
0004,
0001,
FFEC,
FFF7,
000E,
FFE5,
FFF9,
0002,
FFFF,
FFE7,
000B,
0002,
FFE8,
FFFF,
0009,
0026,
000C,
FFF8,
FFFD,
0001,
FFF4,
000A,
FFFA,
0007,
FFF8,
001A,
000E,
FFF6,
0023,
000A,
FFF6,
000A,
FFED,
FFFE,
0002,
0002,
0006,
0004,
0006,
0004,
000B,
0002,
001D,
0003,
FFE8,
000D,
FFE3,
FFF2,
FFE9,
0006,
000F,
FFFF,
FFF9,
0017,
FFF6,
0000,
FFCB,
FFF7,
FFF5,
000A,
FFF7,
0004,
0000,
0019,
FFF2,
0005,
0000,
0004,
0011,
FFEE,
0000,
FFF3,
0004,
FFF8,
0001,
0003,
FFD9,
000E,
FFF8,
FFCF,
FFFF,
0000,
0006,
FFFF,
FFF8,
FFF1,
001A,
FFED,
FFF7,
000F,
FFFD,
001C,
0014,
0007,
0015,
FFFD,
FFF6,
000F,
0007,
FFFE,
0015,
FFFA,
FFFD,
FFF0,
0007,
0003,
0011,
0006,
FFE8,
0005,
000E,
FFFF,
001D,
FFEC,
001A,
FFFE,
FFF7,
0006,
0006,
FFFB,
FFFD,
FFF9,
FFF8,
FFFE,
0008,
0006,
0003,
0004,
000B,
FFF5,
0001,
FFFB,
001D,
FFE7,
0006,
FFFA,
FFD8,
FFFF,
FFFF,
FFF3,
FFF5,
FFF2,
FFFE,
0004,
FFF3,
0003,
0007,
0035,
FFFC,
0006,
0002,
0007,
FFEB,
FFF2,
0000,
FFF1,
FFFC,
0016,
FFF3,
FFFC,
FFFC,
FFFF,
FFF2,
FFF8,
FFFD,
000F,
FFF1,
0004,
FFE5,
0005,
FFF4,
FFF1,
0001,
FFF1,
0013,
0007,
001B,
000B,
0015,
0000,
0002,
0008,
FFF3,
0005,
FFFE,
FFF9,
0004,
0005,
0006,
FFF6,
000E,
FFE7,
FFFA,
0000,
FFFD,
FFF3,
0000,
000B,
FFF8,
FFFD,
0002,
000D,
FFF0,
0009,
0019,
FFFD,
FFF6,
FFF9,
FFF9,
0012,
FFFA,
FFE7,
0028,
0004,
0003,
0010,
FFF9,
0009,
001E,
FFF5,
0003,
000D,
FFFF,
000B,
0007,
FFE5,
0007,
0007,
0009,
0013,
0003,
FFFC,
FFF2,
FFF8,
0014,
FFE5,
0000,
FFEF,
FFD2,
FFFC,
FFFC,
FFFE,
FFF9,
FFFA,
FFF8,
0007,
FFFD,
0007,
0000,
FFF8,
000B,
FFFF,
0004,
0019,
FFFD,
0003,
0007,
0005,
FFFD,
FFFF,
0014,
FFFB,
0001,
FFFF,
0006,
0002,
FFFE,
FFF5,
000D,
FFF4,
0001,
FFFB,
FFF4,
0016,
FFF0,
0005,
FFFE,
FFF2,
FFED,
0013,
FFF3,
000A,
001A,
0009,
FFEC,
0007,
FFFC,
000D,
FFF1,
0000,
FFFA,
FFF4,
FFF2,
0009,
0006,
0008,
FFDF,
0007,
0027,
0007,
FFEF,
FFD3,
0001,
0019,
0007,
002A,
0016,
FFF0,
FFF5,
000B,
0006,
000C,
FFEA,
0000,
0003,
0006,
0029,
FFEC,
0010,
FFFE,
0004,
FFCB,
0001,
FFF7,
FFF3,
000E,
FFEF,
0019,
0016,
000B,
0026,
FFF5,
FFED,
001D,
0025,
0000,
FFEC,
001A,
0003,
FFFF,
FFF0,
0008,
FFF4,
FFFE,
0000,
0008,
0022,
0001,
FFF6,
000E,
0028,
0007,
0006,
0020,
0000,
0013,
FFEC,
FFED,
000C,
FFE2,
FFEC,
0031,
000C,
0000,
FFFF,
001B,
FFF0,
0001,
FFE9,
002A,
0003,
0000,
FFF9,
FFEF,
FFFA,
0012,
FFE5,
0002,
FFEF,
001F,
0015,
FFFB,
FFF9,
FFDE,
0002,
0001,
0010,
0001,
000B,
000A,
FFFD,
000C,
FFFE,
FFC3,
FFE8,
0005,
FFC9,
FFF7,
FFDA,
FFF5,
000E,
FFF0,
FFFE,
FFF6,
0011,
0019,
FFED,
000A,
FFFA,
000B,
FFD4,
0004,
FFF7,
FFF8,
000D,
0001,
0021,
FFF9,
0004,
0003,
0009,
FFEE,
FFFF,
FFFE,
FFE2,
FFF6,
000E,
FFE6,
FFEB,
0040,
FFEC,
0016,
0004,
FFFD,
FFF7,
0004,
FFED,
0005,
000A,
0022,
0026,
0008,
0003,
000D,
FFF1,
FFE3,
FFFE,
FFF8,
000B,
FFFF,
FFF1,
FFFA,
FFFB,
0008,
FFFF,
0006,
0001,
FFF9,
0007,
FFFF,
FFFF,
FFD6,
FFFE,
FFE2,
FFFC,
FFE4,
0002,
000C,
001E,
FFEF,
FFF8,
FFFA,
001B,
001C,
FFF0,
FFFE,
FFE9,
0006,
0006,
0011,
FFFF,
0006,
0003,
FFF1,
0009,
FFEB,
FFF2,
FFE5,
FFFC,
000C,
FFFD,
001D,
0047,
0027,
FFFD,
0013,
0004,
FFFA,
0006,
FFE0,
0005,
000C,
FFCC,
0008,
FFE3,
0004,
FFF3,
0007,
0013,
0016,
FFF4,
FFF9,
0009,
0003,
0002,
FFFD,
0023,
FFC7,
000A,
FFCF,
FFF6,
0014,
0019,
FFF9,
0006,
0010,
0003,
0003,
FFD9,
FFE8,
FFFE,
0006,
0002,
0008,
0000,
0000,
FFF4,
FFF5,
FFF4,
FFFB,
FFF2,
003D,
0003,
0005,
0005,
FFEE,
000B,
000F,
0000,
0013,
FFF5,
FFE8,
000D,
FFFB,
0022,
FFFF,
FFF2,
0003,
0009,
0002,
FFEE,
0012,
FFFC,
FFF5,
0009,
0007,
0004,
0004,
0016,
FFF4,
0013,
0007,
FFF5,
000D,
0000,
FFF8,
FFFD,
0001,
001D,
FFFC,
FFFA,
0027,
0000,
0009,
FFFF,
FFF3,
FFFB,
000B,
FFFC,
FFFD,
000C,
FFF6,
FFFB,
FFE8,
FFF7,
FFFD,
0022,
0042,
FFF9,
FFFA,
0005,
0010,
FFF5,
0011,
0010,
0004,
FFFF,
FFF9,
FFF3,
000A,
0003,
0002,
0001,
0015,
FFFE,
FFFD,
FFE4,
0022,
FFFB,
FFFA,
FFFB,
0003,
0015,
FFEE,
0026,
FFE5,
FFEB,
0000,
FFFF,
0002,
FFF0,
FFFC,
FFC4,
FFEA,
0005,
FFFF,
FFF6,
0003,
FFFF,
FFF2,
FFF6,
FFFB,
FFF9,
000E,
FFE6,
001F,
0002,
FFFC,
0004,
0007,
000E,
FFD4,
0008,
0018,
FFFB,
FFE1,
FFE3,
0009,
FFF9,
000C,
0006,
0001,
0008,
FFE5,
0001,
FFF6,
FFFB,
0004,
FFFE,
FFFE,
FFEA,
0001,
000A,
0000,
0007,
0001,
FFFC,
FFEF,
000B,
FFF8,
FFF4,
FFFE,
0006,
0005,
0000,
FFF2,
0002,
FFF3,
0005,
000E,
0005,
0000,
0000,
000C,
FFFF,
0001,
0004,
FFFD,
0006,
FFF7,
0002,
0002,
FFFF,
0008,
0008,
000E,
FFFB,
000E,
0002,
FFFE,
002B,
FFFA,
FFF9,
FFFD,
FFF9,
FFEE,
FFFF,
FFEF,
FFFE,
FFEC,
000E,
FFFF,
FFFF,
0006,
000B,
0005,
0000,
0010,
000C,
FFF3,
FFFD,
FFF7,
0004,
0001,
000C,
FFE9,
FFF5,
FFFF,
0007,
FFF9,
0019,
FFF7,
000A,
000F,
0001,
0009,
0002,
FFE8,
FFFE,
FFFC,
000D,
0007,
0006,
FFFB,
FFF0,
FFFE,
FFFB,
000B,
000D,
FFEA,
0000,
0008,
0004,
0006,
FFF5,
FFFC,
0024,
FFFB,
001E,
0000,
0003,
FFFD,
FFFB,
FFFA,
000D,
FFF3,
FFFC,
FFF3,
FFED,
0002,
0003,
FFFF,
FFFD,
0009,
0014,
FFF3,
FFED,
FFFA,
0000,
0001,
FFFC,
FFF7,
0001,
FFFA,
FFFD,
FFFC,
0005,
0005,
FFFC,
FFF7,
FFF3,
0004,
FFFB,
0001,
FFF3,
0004,
0000,
FFE9,
FFF6,
0005,
FFFB,
FFFE,
000D,
0001,
0001,
0006,
FFFD,
FFFF,
FFFD,
FFEC,
0020,
FFFC,
FFFC,
0006,
0005,
FFFB,
FFF4,
FFF9,
FFFD,
000C,
0002,
FFF6,
FFFE,
FFEB,
002B,
0003,
0007,
FFF9,
0001,
FFFB,
0002,
000E,
001C,
FFFF,
0007,
0002,
0000,
FFF6,
FFED,
FFED,
000E,
0010,
000C,
0004,
FFF4,
0000,
FFFE,
FFF8,
0014,
FFFE,
FFF7,
FFFF,
FFF5,
FFEF,
FFFC,
FFEE,
0004,
0025,
000B,
0010,
000C,
FFFD,
0007,
0006,
001F,
FFFB,
0009,
FFFD,
0004,
0002,
000A,
000F,
FFEE,
0001,
FFFF,
000C,
0011,
000D,
FFF6,
0007,
000B,
FFFB,
FFFD,
FFF3,
FFEF,
FFE6,
FFE6,
FFF8,
0002,
FFF9,
FFF4,
FFF3,
0000,
FFEE,
FFFF,
FFE3,
FFFE,
0018,
0006,
FFF7,
0025,
0006,
FFE1,
0010,
0003,
FFF1,
FFE5,
FFE7,
0009,
0001,
FFFC,
0000,
FFF8,
0008,
FFFE,
0002,
0005,
0002,
0002,
001F,
0013,
FFF8,
FFF1,
0016,
FFE3,
FFFD,
0004,
FFE9,
001D,
0002,
0025,
FFE4,
FFE8,
0004,
000A,
0013,
FFF4,
001F,
0010,
0000,
0002,
FFEF,
FFF7,
FFFB,
FFFA,
002E,
0004,
FFEE,
FFF8,
FFFB,
0009,
0001,
0011,
FFF9,
0007,
FFE6,
0011,
0006,
FFFE,
FFED,
001B,
0001,
0013,
0007,
0001,
0007,
FFFA,
FFD7,
0005,
FFE9,
0002,
FFE8,
001D,
0011,
0002,
0009,
0004,
FFF6,
FFF7,
0002,
0003,
000D,
0012,
FFF3,
FFFC,
FFFC,
0000,
0006,
0006,
FFF7,
0001,
000E,
FFF9,
000C,
FFF2,
FFF1,
FFF0,
0003,
FFE7,
0000,
0030,
FFFC,
0000,
FFF6,
0016,
FFE0,
FFF2,
0012,
0017,
FFFE,
FFEB,
000B,
0003,
0007,
0004,
FFF9,
FFFF,
000B,
FFF3,
0007,
0000,
FFFA,
FFF9,
0005,
000C,
FFF8,
0001,
0006,
0006,
0009,
0007,
0013,
FFF3,
FFF6,
0007,
FFFF,
FFF8,
FFF9,
0001,
FFF9,
FFFE,
0006,
0003,
FFF4,
FFFC,
FFF7,
FFF9,
0005,
0008,
0006,
0009,
0009,
FFF9,
0000,
0006,
0002,
FFF8,
FFF6,
0007,
FFF6,
FFFC,
FFF2,
FFEA,
0001,
000A,
FFFE,
0009,
FFF7,
FFF6,
FFF5,
0013,
0016,
0011,
FFFC,
FFFF,
FFFA,
FFFA,
FFE4,
0003,
FFFB,
0004,
0000,
0017,
0001,
FFF3,
0008,
000F,
FFF9,
FFFA,
FFFF,
0009,
0004,
000E,
FFFF,
FFFB,
0015,
0006,
0004,
0007,
0004,
FFFA,
0004,
FFF8,
FFF6,
0002,
FFFD,
0008,
0008,
FFF5,
FFFA,
FFDD,
0012,
FFFB,
FFFC,
FFF5,
FFFA,
FFFD,
FFFE,
FFFC,
000F,
0004,
0001,
0004,
0000,
FFF7,
0009,
FFEF,
000C,
FFFA,
FFF6,
FFF1,
0002,
0007,
0003,
0005,
FFF2,
0003,
FFFD,
0005,
000A,
000A,
FFFE,
0005,
0000,
0008,
FFFE,
0000,
000A,
FFEA,
0004,
FFD7,
000B,
0003,
FFFF,
0003,
0007,
000A,
0003,
FFF6,
FFF5,
FFF3,
0008,
FFFB,
0005,
FFF6,
FFF8,
0012,
000A,
0001,
FFFE,
000B,
0014,
0008,
000D,
000B,
FFF9,
0009,
FFFD,
0003,
0005,
0005,
FFFD,
FFE4,
0008,
FFFB,
0014,
0010,
0001,
0001,
0000,
0005,
000C,
FFFE,
0003,
0008,
FFFE,
FFFA,
0012,
FFEC,
0006,
FFF5,
FFF4,
000A,
0009,
FFFE,
000E,
000A,
0004,
FFFA,
FFF8,
0003,
0010,
0000,
FFFE,
0000,
0009,
FFFC,
000B,
FFF0,
FFF9,
FFFE,
FFF9,
FFEE,
000E,
0018,
0009,
FFFB,
FFF4,
0016,
FFD6,
0003,
FFFA,
0004,
FFFF,
FFF7,
FFF1,
0017,
FFFD,
FFDC,
FFF9,
FFFF,
FFF5,
000E,
0009,
0004,
000F,
0009,
0007,
0008,
0005,
0010,
FFEB,
0005,
0010,
0003,
FFF7,
000C,
FFF8,
FFE3,
0002,
FFF8,
0008,
000A,
FFFF,
0007,
FFFD,
FFF7,
0002,
FFFA,
0005,
FFFF,
0007,
FFFD,
0006,
0004,
000F,
000F,
FFF1,
FFDF,
FFFE,
0000,
FFF8,
FFF3,
FFEF,
0002,
001A,
FFFF,
0008,
FFF9,
000D,
000B,
000D,
FFFA,
0006,
FFFC,
FFFE,
0001,
FFF4,
000F,
000E,
001F,
FFE5,
FFFA,
0002,
0006,
0005,
0000,
0011,
FFF9,
0000,
FFF3,
FFD8,
FFF8,
0000,
FFF4,
0003,
FFF8,
0006,
FFDF,
0003,
0001,
000A,
0001,
FFFB,
FFEE,
0021,
FFFD,
FFF9,
000F,
FFE0,
FFFB,
FFCA,
000D,
0020,
FFFC,
0001,
FFEC,
FFF4,
FFFD,
FFF0,
001E,
FFF8,
0008,
0005,
FFF7,
0018,
FFF3,
0013,
FFF2,
FFFF,
FFE8,
0006,
000E,
FFF4,
FFFA,
FFF5,
FFFA,
FFF9,
FFFA,
001E,
FFF9,
0007,
FFF5,
FFEF,
000A,
000A,
FFE1,
0002,
FFFA,
FFFF,
000E,
FFEE,
FFFF,
FFF6,
FFFF,
0014,
000E,
000A,
0022,
0005,
FFF5,
FFF2,
0003,
000A,
0012,
FFF1,
FFF0,
FFF0,
0001,
000D,
0002,
FFFE,
FFF8,
FFFC,
0003,
000F,
FFFE,
FFF7,
0009,
FFF5,
FFFF,
FFFA,
0013,
0011,
0002,
0003,
001B,
0004,
0010,
0009,
FFFB,
0011,
FFFD,
FFFD,
FFF4,
001C,
FFFA,
FFF0,
FFF8,
FFF8,
FFFB,
0001,
FFD5,
FFED,
FFF0,
FFFA,
000D,
FFDE,
FFF4,
0034,
FFF4,
FFF1,
0000,
0021,
FFFF,
0007,
FFF5,
FFE7,
000C,
FFFA,
0001,
004B,
0009,
0027,
FFFE,
000E,
0025,
002C,
0008,
0007,
0000,
FFF7,
0016,
FFF3,
0000,
0005,
0027,
000D,
FFE1,
0001,
FFF0,
001D,
FFF1,
FFEA,
0003,
FFFC,
FFFB,
FFD6,
FFF1,
0012,
FFFF,
0020,
002C,
FFFE,
0009,
FFF8,
FFEE,
FFFC,
FFEE,
0020,
FFD8,
0009,
0003,
FFD3,
000D,
000C,
0006,
000F,
FFBC,
FFFE,
000E,
FFDC,
0003,
FFFC,
0005,
0012,
002A,
0000,
FFFD,
FFFA,
000F,
FFF7,
FFFF,
000E,
FFFD,
0002,
0018,
FFDD,
FFFC,
000C,
FFC2,
FFFD,
FFF4,
0009,
FFFB,
FFF6,
0007,
000D,
FFC4,
FFF7,
FFE9,
001D,
0002,
FFF4,
FFF9,
0020,
FFEB,
0003,
FFD9,
0001,
000F,
FFFB,
FFF0,
0009,
FFFD,
0003,
FFFD,
FFFA,
0032,
0000,
0007,
FFFD,
FFFD,
002F,
0004,
FFF7,
FFEF,
0052,
FFFA,
0010,
000B,
000D,
FFFB,
FFFB,
005E,
FFF1,
0004,
0006,
0008,
FFE7,
0001,
0002,
0004,
FFF8,
FFFA,
0002,
FFF3,
FFF0,
FFF5,
000C,
FFE7,
0033,
FFF7,
0026,
FFF7,
FFD0,
0020,
FFF9,
FFFD,
001F,
0002,
FFEC,
0036,
FFF9,
FFCA,
000B,
FFF3,
0001,
0002,
FFF5,
0006,
FFFE,
FFE0,
FFDD,
002A,
000B,
FFFF,
FFF8,
FFFF,
FFF0,
0004,
FFEE,
000B,
0016,
FFE1,
FFFC,
FFF8,
FFEF,
0029,
002A,
FFFC,
001D,
FFEF,
000F,
FFF0,
000C,
FFF5,
FFF6,
0004,
FFE9,
FFF2,
000A,
FFF9,
FFE3,
000F,
000C,
000C,
FFFB,
FFF1,
FFF9,
FFEB,
001A,
FFF4,
FFF8,
000E,
FFF6,
000E,
FFEB,
FFFB,
FFF3,
FFC6,
FFF7,
FFED,
FFF7,
0000,
0002,
FFCE,
FFFC,
0018,
FFFB,
0010,
FFE8,
0001,
FFF9,
000A,
0005,
0001,
0002,
FFF4,
FFFF,
000A,
FFFF,
FFDF,
000F,
0020,
0001,
000D,
FFEC,
0007,
001D,
FFF8,
0021,
FFFE,
0014,
0005,
0012,
FFF1,
FFF4,
000B,
FFEF,
0004,
FFFF,
0002,
0021,
FFE9,
FFE0,
0007,
0000,
0010,
FFDE,
0004,
FFF5,
0014,
0014,
0020,
0012,
0005,
FFFD,
FFE7,
FFF2,
FFFC,
0008,
FFFE,
0012,
000A,
FFE8,
FFFE,
FFED,
FFED,
FFF4,
0003,
FFFF,
000E,
FFD4,
0008,
FFED,
FFF7,
0019,
0027,
0000,
0005,
FFEF,
FFF6,
0006,
001A,
FFFF,
FFFE,
FFF6,
0039,
FFF1,
000C,
FFFD,
FFFF,
FFEA,
000A,
000B,
0000,
0003,
FFF0,
FFFC,
000A,
FFFD,
001B,
FFE4,
000C,
0009,
0006,
0009,
FFFE,
FFF8,
FFE5,
FFE1,
0003,
FFFA,
0007,
0007,
0000,
FFF6,
0029,
FFF8,
FFF4,
FFF6,
FFF5,
000C,
0027,
000B,
FFF7,
000F,
FFEA,
0048,
0001,
FFDF,
001B,
000B,
000E,
0004,
0007,
FFEB,
0004,
FFF7,
0001,
FFFE,
FFF4,
000F,
FFF4,
FFFE,
0005,
0004,
0002,
0005,
FFF8,
0005,
0007,
000A,
0023,
FFDF,
0006,
0018,
FFF2,
0005,
FFE9,
0003,
0010,
000A,
FFF5,
FFED,
0004,
FFFC,
000F,
0000,
FFFE,
0002,
0015,
0004,
001D,
FFF2,
0001,
000C,
FFFC,
0007,
FFF7,
FFFE,
0002,
FFF6,
0009,
FFF8,
FFFA,
FFF6,
FFFF,
0008,
FFF8,
0022,
000A,
FFFF,
0012,
000F,
FFFB,
FFFC,
FFFC,
FFF7,
0005,
0011,
FFF5,
0001,
FFFA,
0001,
FFE3,
0008,
FFFB,
FFFE,
000B,
000C,
FFDF,
FFF9,
FFEC,
FFFF,
FFFD,
0007,
0008,
001A,
0013,
000C,
FFFF,
FFFC,
0002,
0005,
FFF3,
0007,
FFF0,
FFF8,
0013,
FFDE,
FFF8,
FFF8,
0010,
0001,
0009,
0030,
FFEB,
0004,
FFF9,
0000,
FFEA,
FFFC,
0003,
000F,
0019,
001D,
FFFF,
FFF1,
FFFC,
FFFF,
0028,
FFDE,
000E,
FFFD,
FFEC,
FFFE,
0007,
FFFA,
0004,
FFF9,
0005,
FFF7,
FFEF,
FFE4,
0013,
FFFB,
0015,
0004,
FFEF,
0009,
FFFC,
FFEA,
0016,
0007,
000D,
000D,
FFF4,
0004,
0009,
FFDC,
0007,
0007,
0001,
FFFC,
0005,
FFFC,
000A,
000C,
FFFE,
0009,
0018,
0008,
FFEE,
FFF8,
FFFC,
FFFB,
FFFF,
0011,
FFEA,
FFEF,
FFFC,
FFEF,
0005,
FFE5,
FFFF,
0007,
FFED,
FFEE,
FFD8,
000F,
FFF0,
FFFA,
0010,
0008,
FFF8,
FFFF,
FFF7,
FFFA,
0001,
FFF0,
000E,
0004,
FFF8,
0011,
FFF9,
0005,
FFFF,
FFDD,
0000,
FFF6,
FFFE,
000B,
FFFE,
0014,
0012,
FFFA,
0007,
0016,
FFFD,
0001,
0012,
001C,
0011,
FFFE,
0002,
FFF3,
0001,
000C,
0014,
FFF7,
0008,
0008,
000F,
FFFC,
0007,
FFF8,
FFEB,
000A,
000F,
FFFF,
FFFE,
000D,
0015,
FFFD,
0000,
002D,
FFED,
FFEA,
FFFC,
001C,
0004,
FFF2,
FFF7,
FFFA,
0019,
0004,
FFF2,
FFEC,
FFF8,
FFFE,
FFE0,
FFF7,
FFF5,
0000,
0014,
FFE1,
0002,
FFEE,
0010,
FFEA,
0016,
001B,
0002,
0002,
FFEE,
FFD8,
FFEE,
0009,
0007,
FFCF,
0011,
0007,
0006,
FFF2,
0004,
FFFA,
0001,
FFFE,
FFF8,
0009,
000D,
FFFD,
0017,
000C,
0003,
0003,
0032,
FFEF,
FFDE,
0001,
000A,
FFFD,
0002,
0005,
FFF7,
0014,
0002,
0000,
FFEA,
FFF2,
0021,
0014,
FFEA,
0007,
0009,
000B,
001D,
0012,
FFF9,
FFEB,
000E,
0007,
FFEA,
FFFE,
0009,
000B,
FFE9,
0000,
FFF2,
0009,
0008,
001C,
0005,
FFF1,
FFE6,
FFFC,
FFF3,
0006,
002C,
0007,
FFF0,
FFFC,
FFFD,
0011,
FFE3,
0004,
000C,
000E,
FFC7,
0009,
FFEA,
FFFD,
0002,
FFFD,
000C,
FFF7,
0002,
FFFA,
FFC6,
0005,
FFF8,
FFF6,
FFE7,
0003,
FFFC,
FFF8,
FFE7,
FFFF,
0001,
001D,
FFE0,
003C,
FFF4,
000C,
0009,
0009,
FFDB,
000E,
0003,
0010,
0008,
0003,
000D,
0027,
FFFE,
FFFF,
0001,
0018,
FFF7,
FFF5,
0009,
0003,
FFF8,
FFFB,
FFF5,
0000,
FFFB,
0007,
0007,
FFEB,
0009,
000D,
000C,
FFF4,
FFF8,
FFFC,
FFE8,
FFF5,
0002,
0016,
000F,
0001,
FFFD,
0003,
000D,
FFF8,
001E,
FFFD,
FFF9,
FFF4,
FFFA,
001A,
0009,
001B,
000A,
FFFC,
FFDD,
FFFA,
0005,
0002,
FFF8,
FFFB,
000D,
FFFA,
FFE8,
FFEE,
FFED,
FFF2,
0003,
0011,
FFFE,
0003,
FFF5,
0002,
FFF4,
000C,
FFF4,
000D,
0010,
0007,
FFFE,
0010,
FFFC,
FFFA,
FFF6,
FFF2,
0007,
FFEA,
0009,
0003,
FFFC,
0012,
0016,
FFFB,
000C,
FFF9,
FFF9,
FFEC,
FFF9,
FFEF,
0001,
000B,
0009,
FFFB,
FFF6,
FFFE,
FFFD,
FFFD,
000F,
000C,
000E,
000C,
0005,
0000,
FFFC,
000C,
FFE3,
0004,
000E,
000F,
FFF5,
0001,
FFF7,
FFEA,
FFEE,
FFFF,
0003,
0000,
0004,
0003,
0001,
0000,
FFF0,
FFF0,
FFFE,
0004,
FFF5,
0003,
0007,
FFF3,
FFEC,
000C,
001D,
0020,
0003,
FFFC,
0017,
FFFF,
FFF6,
FFF7,
FFF7,
000B,
0000,
FFF7,
001D,
000B,
001C,
FFF7,
000B,
FFEB,
FFFF,
FFF3,
FFF4,
0000,
FFFA,
0002,
FFEE,
0002,
FFFC,
000E,
FFF5,
0000,
0007,
0008,
0013,
0006,
0010,
FFF1,
0018,
000F,
FFF1,
FFFE,
0003,
000D,
0007,
0004,
000E,
0008,
FFFC,
0009,
0011,
0002,
FFF5,
FFF4,
FFEE,
0000,
FFFB,
FFFB,
000F,
0004,
FFFD,
0016,
0008,
0009,
FFFA,
000E,
0020,
0009,
0017,
0007,
FFF4,
0000,
FFF0,
0006,
0002,
FFF0,
000A,
0003,
FFFB,
0008,
0002,
FFFB,
FFFC,
FFF2,
000F,
FFF9,
FFF3,
FFF9,
FFF5,
0005,
0010,
FFF3,
FFFF,
0016,
0004,
FFF7,
0001,
0009,
0011,
FFE2,
FFFE,
FFED,
FFE9,
0004,
0006,
001F,
0004,
001C,
FFE0,
000A,
FFD4,
0019,
0017,
FFFD,
0003,
0008,
0008,
0007,
FFE6,
000D,
0002,
0008,
FFF7,
0007,
FFD9,
FFDB,
FFEC,
0002,
FFF8,
FFF4,
FFF4,
FFEA,
0000,
FFFE,
FFE3,
000D,
FFF0,
FFF8,
FFED,
0006,
0000,
FFF5,
0028,
FFFB,
FFD7,
0005,
0036,
0000,
0029,
0025,
FFFD,
FFCB,
FFFD,
FFFE,
000E,
FFE6,
FFFD,
FFF7,
0013,
FFE4,
FFFE,
000B,
002B,
FFFE,
0020,
000A,
002F,
FFFA,
FFEC,
FFF8,
0001,
001A,
0008,
FFF7,
0000,
0005,
0002,
0001,
FFFF,
0004,
FFFD,
0008,
001A,
0005,
FFF6,
000C,
0008,
0005,
0019,
0014,
FFFD,
0010,
0020,
001B,
0000,
0013,
0005,
FFF7,
0006,
FFF9,
0003,
0002,
0017,
FFF9,
FFF9,
0000,
004D,
0001,
000D,
FFFD,
FFEB,
FFF4,
FFF2,
0002,
0022,
0004,
FFE8,
0002,
FFEA,
FFF1,
FFE8,
0003,
FFF5,
0030,
FFEF,
000F,
FFCA,
0004,
000A,
001C,
0009,
FFA3,
FFFE,
0006,
002C,
FFFB,
0012,
0015,
0011,
FFF4,
0017,
FFE7,
FFDC,
FFEF,
0000,
0009,
FFFF,
FFF9,
FFFF,
0000,
0001,
FFDD,
FFFC,
FFFB,
000F,
0011,
001C,
FFF5,
0022,
FFEB,
000B,
FFE4,
0020,
FFFD,
0028,
0006,
0006,
FFCA,
FFEC,
0018,
FFE5,
FFC9,
0017,
FFED,
0019,
FFDD,
0004,
0007,
FFF5,
FFF7,
FFF3,
FFF5,
0004,
001E,
FFFE,
000E,
FFFD,
0008,
FFE5,
0001,
000A,
FFD8,
002E,
FFF0,
FFE9,
FFE4,
0021,
FFF0,
000D,
0011,
FFFA,
FFCB,
FFEE,
0004,
000F,
FFEE,
0011,
000B,
FFF5,
0004,
FFED,
FFF8,
0006,
000E,
FFE8,
000C,
0013,
0014,
FFE6,
000E,
000E,
0000,
0009,
FFF6,
0007,
0006,
FFF7,
002D,
FFF2,
0002,
FFF5,
FFF6,
FFFC,
000C,
FFFB,
0000,
FFE2,
FFFD,
FFFB,
FFFE,
0005,
000F,
FFF2,
002A,
0003,
FFFB,
FFED,
0009,
0004,
000A,
FFFC,
000D,
FFF5,
0012,
FFFB,
FFF0,
0024,
001D,
FFF8,
0028,
0002,
FFE1,
FFF3,
0005,
FFFC,
FFFB,
FFE9,
0002,
0001,
0009,
0027,
0002,
0019,
FFE6,
FFEF,
FFFF,
0015,
000A,
FFEF,
0005,
FFF5,
FFF4,
FFFC,
FFD4,
FFF6,
0016,
FFF9,
0002,
FFFE,
FFFB,
0006,
000A,
0000,
000D,
0006,
FFF4,
0016,
000E,
FFF8,
FFF9,
FFFE,
002A,
FFE7,
FFE7,
001D,
FFFE,
FFE9,
0002,
000B,
FFF6,
001A,
0004,
0003,
FFF8,
0003,
0010,
FFFD,
FFF7,
0003,
000F,
0002,
FFF8,
0016,
FFFD,
000C,
FFD9,
0002,
001C,
000F,
0008,
FFFF,
FFED,
000E,
001F,
0004,
0013,
FFFC,
FFFD,
FFF3,
001B,
0003,
FFFF,
0005,
0002,
0002,
FFEB,
FFF5,
0001,
FFF2,
FFF0,
0025,
FFF0,
000D,
FFF4,
0011,
FFFF,
0004,
FFE0,
0002,
FFFF,
0000,
000A,
FFFD,
FFFB,
0016,
0018,
0001,
FFFB,
FFFE,
0021,
002A,
FFFA,
FFFA,
0014,
000B,
FFFE,
0001,
000F,
FFDE,
0013,
001E,
FFDA,
FFF5,
000C,
FFF9,
0004,
0002,
001A,
FFFE,
0014,
FFFA,
0009,
000A,
000C,
0001,
0007,
FFFB,
0002,
FFFC,
0005,
FFF7,
0001,
0012,
001F,
000C,
FFF8,
000A,
0004,
0007,
FFF5,
0012,
0007,
FFF0,
0001,
0002,
0007,
FFE9,
FFFC,
0003,
FFF1,
FFFB,
0006,
001E,
FFF4,
0000,
FFFD,
FFFE,
0003,
0007,
0009,
000A,
0009,
0000,
FFFE,
FFFB,
FFEF,
0001,
FFFD,
FFF9,
FFF5,
FFFC,
FFFE,
0005,
0001,
0003,
0001,
0003,
000E,
FFFA,
FFDB,
000A,
FFF4,
0003,
000A,
FFFE,
0001,
FFF8,
FFED,
FFF1,
0001,
FFFF,
001F,
FFF2,
FFFE,
0005,
000D,
0006,
FFFF,
FFFD,
FFFB,
FFF8,
FFFD,
0004,
FFFF,
FFFF,
002A,
FFFC,
0020,
FFFF,
FFF9,
0002,
FFFD,
0001,
FFFB,
FFFB,
FFF2,
FFFF,
0005,
FFE8,
FFF9,
0000,
FFF1,
000B,
0001,
000E,
0022,
FFF5,
FFFD,
FFF9,
0000,
0007,
FFFE,
0006,
FFFF,
FFFA,
0008,
FFFA,
FFFE,
0017,
FFF9,
0004,
FFEE,
FFFF,
FFFD,
000E,
FFFE,
FFF7,
000F,
0008,
0001,
FFFE,
0002,
FFE1,
FFF2,
0003,
0000,
0003,
FFFE,
FFFE,
FFF6,
000D,
0004,
FFFA,
FFF9,
0006,
0002,
0002,
0001,
0003,
FFFD,
FFFC,
000D,
FFEE,
FFFE,
FFF2,
0000,
0001,
FFFA,
0001,
001F,
0007,
0001,
FFFF,
FFF2,
0004,
FFF9,
FFFC,
FFFB,
0004,
000C,
FFFF,
0001,
FFEE,
FFF7,
FFF7,
0001,
0000,
000F,
0003,
0004,
0015,
FFEC,
FFEE,
0001,
FFF0,
0007,
FFFB,
FFFD,
0000,
FFFA,
0008,
FFE9,
FFEE,
0014,
FFF7,
FFE7,
0007,
001B,
FFE9,
0011,
0015,
FFF0,
000D,
0005,
000F,
FFD6,
FFFD,
0020,
FFFF,
FFF4,
002C,
000C,
0017,
FFFE,
FFF3,
FFF6,
0006,
FFF6,
0000,
001B,
FFEC,
FFE9,
000D,
FFEB,
001C,
FFF0,
000B,
0001,
FFFD,
0004,
FFF3,
FFF4,
FFF0,
000E,
0015,
0047,
FFFD,
0018,
0002,
0004,
0031,
FFF4,
0009,
FFF4,
FFFA,
FFDC,
FFED,
FFFB,
FFEA,
FFF2,
000A,
FFED,
0016,
FFF5,
0002,
0003,
FFFD,
FFE1,
FFEF,
000F,
000E,
FFDC,
0008,
0000,
000B,
FFED,
FFFC,
FFCF,
FFFB,
FFF8,
FFF3,
0016,
0011,
0004,
FFF0,
0009,
0003,
0022,
001E,
000B,
0005,
FFF0,
0003,
0001,
001F,
0024,
0000,
FFE5,
0007,
FFF8,
FFFA,
0003,
0005,
FFFC,
FFFD,
FFFC,
002D,
0011,
FFF7,
FFE0,
FFE2,
FFFF,
000B,
FFFF,
0013,
0027,
000B,
0008,
FFF3,
FFFA,
0010,
FFF3,
0005,
FFFD,
FFFF,
0006,
FFF5,
0005,
0004,
FFE6,
FFFE,
FFF7,
FFF4,
FFF6,
0009,
000E,
FFDB,
FFFC,
0009,
FFEF,
FFFF,
0004,
FFFC,
FFF4,
0001,
0004,
000E,
0002,
FFFF,
FFFB,
001E,
000F,
0000,
0019,
0020,
FFEE,
0047,
FFE4,
0006,
0003,
0002,
000C,
FFFF,
FFDB,
FFF8,
0005,
000B,
FFED,
000C,
0008,
FFDC,
0025,
0001,
FFDA,
0019,
0000,
FFE8,
FFFA,
0013,
0007,
0002,
FFFA,
0003,
0007,
000C,
FFFB,
FFEC,
FFF9,
FFD3,
001B,
FFFE,
FFFE,
FFFB,
FFFD,
0002,
000B,
FFFC,
FFF8,
0006,
0004,
FFF9,
FFF9,
FFFB,
FFFE,
0001,
FFFD,
0002,
FFF5,
FFF5,
FFFD,
FFEF,
000D,
0005,
0007,
FFFE,
FFFE,
FFFE,
FFFE,
0005,
0000,
FFE9,
FFF2,
FFFB,
0012,
000F,
0003,
FFFA,
000B,
0003,
0000,
0001,
0007,
0005,
FFFC,
FFFD,
FFFF,
0000,
FFFF,
000C,
FFF6,
0045,
0002,
FFFE,
0005,
0008,
0001,
0004,
0008,
0003,
0009,
FFFC,
FFFE,
0006,
FFFE,
0001,
0003,
FFFD,
FFFE,
FFED,
0001,
0005,
000A,
FFF6,
000D,
0001,
FFE8,
0001,
0000,
FFFD,
0002,
FFFD,
FFFF,
FFFF,
0000,
FFF7,
0003,
0002,
FFFA,
000D,
FFFE,
0005,
0003,
000A,
FFFE,
FFFD,
FFFC,
0002,
0001,
000E,
FFF9,
FFFD,
0004,
001F,
FFF9,
0004,
FFFF,
FFFE,
FFF4,
0003,
FFF7,
FFFE,
FFF8,
FFFE,
FFD4,
FFFF,
000F,
000E,
0001,
FFF6,
000A,
FFE4,
FFFE,
FFFB,
FFFF,
FFFE,
0001,
0006,
FFFC,
FFFE,
0000,
000B,
0007,
FFFC,
0002,
FFF4,
0001,
000B,
FFFE,
0001,
FFFF,
0003,
0005,
0006,
000C,
FFFD,
FFFF,
FFFF,
FFF6,
FFD8,
0001,
FFFC,
FFFF,
FFF4,
0008,
FFFF,
001C,
0009,
FFFF,
FFFF,
0000,
0004,
FFFF,
0003,
0006,
0010,
FFFE,
0001,
FFFF,
FFFC,
FFFF,
0000,
FFF8,
FFFD,
FFFB,
FFFF,
0002,
0002,
FFFE,
0006,
FFFA,
0004,
000E,
FFE2,
0000,
FFF6,
0005,
FFF9,
0007,
0004,
FFF6,
FFFE,
0001,
0007,
000C,
FFF5,
001A,
FFEF,
FFFC,
0019,
FFF7,
000D,
FFFF,
FFEB,
001C,
FFEE,
001A,
000B,
0020,
FFEF,
0018,
0004,
FFEA,
0010,
0001,
0009,
0014,
FFE4,
FFDF,
FFDB,
000A,
000F,
0004,
FFF5,
001B,
0001,
000B,
FFF6,
FFED,
FFF4,
0008,
0001,
FFEA,
FFF0,
0003,
FFF3,
0009,
0000,
FFE8,
0015,
FFE1,
FFF7,
0000,
0003,
0020,
0010,
FFF7,
0012,
FFE6,
FFFF,
001D,
FFFF,
000D,
FFF9,
FFF5,
FFD7,
0001,
0008,
0013,
FFF3,
000D,
0002,
FFEF,
FFEC,
000B,
FFF0,
0012,
000F,
FFFB,
001C,
0003,
FFEC,
FFFE,
FFF2,
0020,
FFF2,
0000,
FFFB,
001B,
000F,
FFF8,
000F,
FFD6,
FFFB,
000B,
FFDB,
0010,
FFFC,
0002,
0012,
001D,
0002,
0015,
0020,
0013,
FFFB,
FFF6,
FFE7,
FFFC,
FFE0,
FFE3,
FFC5,
FFE0,
001A,
FFFE,
0014,
0001,
FFE7,
FFF4,
FFFA,
0002,
FFE2,
0003,
FFFE,
FFF9,
0001,
FFF8,
0003,
FFFC,
0027,
000D,
FFF0,
FFFD,
000C,
FFF0,
FFEE,
FFE2,
0014,
FFF8,
FFF3,
FFF9,
FFE7,
000C,
0005,
FFF3,
001A,
0004,
FFF1,
000B,
FFFD,
0004,
0013,
FFEA,
FFFA,
000F,
FFD9,
000B,
FFF0,
FFFF,
000B,
FFEC,
FFCA,
0012,
FFFA,
FFDD,
0018,
0007,
FFF8,
FFBB,
FFF6,
FFFE,
0027,
002C,
0000,
0000,
FFE0,
0004,
FFFC,
002D,
FFE7,
FFFE,
FFFE,
FFE6,
FFFD,
0004,
FFFD,
0029,
0010,
FFFF,
0011,
0009,
FFF8,
0010,
0010,
FFFB,
FFF9,
0009,
FFFD,
FFDC,
000B,
0020,
0005,
FFEE,
FFF8,
FFFA,
0013,
0014,
000A,
0015,
FFFC,
FFF2,
FFE9,
0012,
FFFF,
0029,
FFF5,
0002,
FFFE,
FFF7,
0022,
001A,
000E,
FFF9,
0015,
0005,
0002,
FFF1,
FFFC,
FFFA,
0001,
FFF7,
0005,
0004,
0014,
0019,
0029,
0004,
0016,
FFFC,
FFE9,
0029,
0012,
FFFB,
0009,
FFFF,
0002,
FFFE,
0025,
0003,
FFF5,
FFE5,
FFDE,
0000,
FFF2,
FFF1,
0011,
FFEF,
FFF8,
FFE3,
FFEE,
FFE9,
0005,
FFF7,
FFFD,
0013,
FFE9,
001B,
0000,
0001,
0023,
FFFF,
0000,
FFEA,
FFF6,
000B,
FFEA,
000C,
001E,
FFEC,
FFF1,
0014,
0017,
FFEF,
FFF1,
001A,
FFFA,
0017,
FFEF,
FFFD,
FFFD,
FFFB,
FFF9,
0022,
0008,
FFED,
FFF0,
FFED,
FFFE,
0016,
FFED,
FFF9,
FFF8,
FFF2,
001C,
FFE0,
0002,
FFFC,
0027,
0001,
0003,
FFFB,
FFFF,
0022,
FFF7,
000A,
FFF8,
FFFE,
FFF5,
FFE9,
FFFE,
0000,
0013,
FFE3,
000E,
0018,
0008,
0017,
001A,
0005,
FFFF,
FFF8,
0009,
0030,
FFF6,
FFF5,
0001,
FFF0,
FFF4,
0002,
000F,
0026,
FFFD,
FFF4,
000B,
FFF4,
FFFF,
0001,
001B,
FFE4,
FFEB,
FFE9,
002A,
FFD0,
FFF5,
001C,
0014,
FFFE,
FFF7,
0007,
FFF0,
0007,
0004,
FFF0,
001D,
0004,
0006,
FFF3,
FFF6,
FFDC,
0000,
0009,
FFF6,
0014,
FFF6,
FFF0,
FFDE,
FFF0,
0000,
0002,
000E,
FFFB,
FFFD,
FFD3,
001E,
FFE2,
0019,
0007,
0005,
001A,
FFF7,
FFF9,
0014,
0014,
0011,
FFFE,
FFF0,
0017,
FFEC,
FFF7,
0016,
0011,
0008,
0004,
0011,
0029,
0005,
0001,
FFEA,
0002,
0005,
001A,
FFE3,
0020,
FFCF,
001C,
0007,
0000,
FFFE,
001A,
0006,
0000,
0019,
FFFE,
0012,
0015,
0015,
FFFA,
0001,
000C,
FFFE,
FFF4,
0006,
0016,
FFF8,
FFD7,
000F,
0017,
0004,
FFFA,
FFF0,
000D,
FFFB,
FFFB,
FFF5,
FFF4,
FFFC,
FFFB,
FFFB,
001E,
0009,
FFF4,
0008,
0009,
FFFD,
0005,
000B,
0001,
FFF9,
FFEB,
0006,
0015,
0004,
0005,
FFF7,
FFE8,
0014,
0013,
FFDB,
0009,
000A,
FFFD,
0015,
FFFF,
0005,
FFFB,
FFEE,
FFFE,
FFF4,
0019,
000D,
0005,
0002,
0001,
002C,
FFE8,
FFF9,
FFEA,
FFF3,
FFEF,
0006,
0002,
FFEE,
0001,
FFF2,
0003,
0007,
FFE7,
0001,
000E,
FFD3,
FFFF,
FFF6,
FFF7,
FFFA,
FFF9,
FFD3,
FFFE,
FFFD,
0003,
FFE0,
0004,
FFFA,
FFEF,
000B,
0015,
0018,
FFFF,
0001,
FFF7,
001D,
0023,
FFFF,
FFF2,
FFF1,
FFFA,
000E,
0024,
FFF9,
FFE2,
FFF6,
0003,
000E,
000C,
0006,
0009,
000A,
FFFE,
0001,
FFFB,
000F,
0008,
FFF8,
FFE0,
FFFB,
FFFA,
0003,
FFFD,
0000,
0003,
0004,
FFF8,
0002,
0003,
FFFA,
FFFE,
FFE7,
FFF9,
FFFF,
0001,
0014,
0001,
0001,
000B,
FFF1,
0007,
0000,
0011,
0017,
0026,
FFFF,
FFFC,
0004,
0015,
FFF3,
FFF9,
FFD1,
0007,
FFEB,
FFE8,
0020,
0000,
000F,
FFFE,
000B,
0018,
0001,
0009,
FFFF,
FFFD,
FFEC,
FFF3,
FFFF,
FFF8,
FFF0,
0001,
0004,
FFEE,
0002,
000C,
FFEA,
001C,
000B,
FFFF,
0010,
0009,
0004,
0009,
0012,
0002,
0015,
0002,
FFF9,
FFEA,
000D,
0008,
0014,
FFE8,
0008,
000B,
FFF3,
0002,
0013,
0016,
FFF1,
000C,
0005,
FFF1,
001A,
FFF6,
FFFE,
000A,
000B,
0011,
FFE8,
FFFF,
FFFE,
0004,
FFFC,
000A,
FFFD,
0005,
000D,
000B,
0002,
FFFD,
FFF0,
FFF9,
0003,
0007,
FFE6,
FFEC,
FFDE,
0003,
0002,
FFFB,
0009,
0010,
FFFF,
0022,
FFDB,
000E,
FFF7,
0007,
FFF4,
0005,
000A,
0001,
0007,
0002,
0004,
0005,
FFF1,
000B,
FFFC,
FFF3,
FFEF,
FFFC,
0011,
0008,
000F,
0003,
0004,
FFFB,
0010,
FFFD,
FFF6,
0000,
FFF4,
FFF0,
0002,
0004,
FFF6,
FFFD,
FFF2,
001B,
0004,
FFED,
FFF6,
000A,
FFD9,
0007,
FFFE,
FFE1,
FFF7,
FFEA,
FFFD,
FFFC,
FFFB,
0007,
FFD1,
000F,
FFFC,
FFF9,
0010,
FFFD,
FFF1,
0004,
FFFE,
0000,
FFFE,
0008,
000B,
0010,
FFF6,
FFFF,
0004,
FFFF,
000C,
FFFC,
FFFB,
001D,
FFD6,
000F,
0008,
002A,
FFF9,
000C,
000D,
FFF8,
0003,
0003,
0015,
0009,
FFFA,
0000,
0005,
0000,
0005,
000E,
0008,
FFF6,
0005,
FFFE,
FFFB,
FFF9,
0011,
FFFE,
FFEC,
0000,
0000,
0001,
0000,
FFEF,
FFFC,
0005,
FFFC,
000D,
FFF5,
FFF6,
0005,
FFFA,
0005,
001F,
FFE7,
FFD4,
000E,
FFF3,
FFF1,
0001,
FFE8,
000F,
0006,
FFF5,
FFF7,
FFFA,
0016,
0006,
0009,
000B,
0007,
000E,
001A,
FFFE,
0002,
0012,
0002,
0006,
000E,
FFF2,
0017,
FFFA,
0002,
FFEE,
000F,
FFFA,
001B,
FFFB,
0003,
FFF0,
FFF4,
FFEC,
0027,
FFFF,
0026,
001D,
0005,
0003,
FFE6,
0008,
0003,
FFF5,
0000,
FFF1,
FFF0,
0003,
FFFD,
0000,
FFF1,
FFE5,
FFF4,
0006,
0004,
FFE7,
0000,
0004,
0002,
FFEE,
FFFE,
0002,
FFF4,
FFF7,
FFF1,
000E,
0008,
0004,
0002,
FFFB,
FFFD,
0006,
0002,
0018,
FFD8,
0003,
FFF3,
FFDD,
FFF0,
0027,
FFDE,
FFF5,
FFD1,
000D,
FFF8,
0006,
FFEF,
FFF6,
0012,
0004,
000A,
0009,
0010,
FFFF,
FFF4,
000F,
FFF7,
FFFD,
0005,
FFF1,
FFFC,
0029,
0003,
000A,
000B,
FFEB,
0020,
FFFF,
0022,
FFF3,
000D,
000A,
FFED,
FFFB,
FFFE,
000F,
FFEE,
FFF4,
0009,
FFF7,
0011,
000B,
FFF2,
000F,
0000,
002F,
0005,
0006,
0003,
FFF3,
FFEB,
0033,
0003,
0000,
FFDA,
0016,
000B,
FFFD,
0024,
0012,
0000,
FFFC,
000A,
FFEC,
0005,
FFF7,
FFF0,
0008,
FFC8,
FFE4,
000D,
FFF9,
FFEE,
0008,
0015,
FFF8,
FFFA,
FFEE,
000D,
FFF5,
FFF0,
0002,
FFFF,
FFF2,
FFFA,
0014,
000A,
FFF6,
0002,
000A,
0027,
0007,
FFF8,
FFE9,
000C,
FFFC,
0001,
0016,
FFE9,
FFF7,
0005,
0011,
0001,
000B,
0010,
FFF2,
0010,
FFFD,
0004,
FFFC,
FFFC,
FFE9,
0008,
0002,
0016,
001F,
0002,
0025,
002E,
FFD3,
0009,
000C,
0006,
FFF4,
FFFB,
0051,
000C,
000A,
0022,
000C,
0001,
0004,
FFFD,
000A,
FFE0,
FFD2,
0005,
0022,
0004,
FFFE,
FFFF,
0022,
0010,
FFF3,
FFE6,
001C,
FFE4,
0002,
002E,
000C,
FFFC,
0011,
FFE7,
0027,
0005,
FFFC,
0002,
FFF9,
FFEA,
001E,
0004,
FFFC,
000A,
0005,
000E,
FFF9,
0009,
FFF9,
FFD4,
FFF0,
FFF6,
0014,
000F,
0002,
FFFE,
0015,
FFF1,
FFF6,
0012,
FFF9,
FFE8,
FFFE,
FFF6,
0026,
0011,
FFFB,
0006,
FFF7,
0016,
FFF8,
FFFD,
0009,
0024,
000A,
FFF2,
0001,
FFF8,
FFF5,
001A,
FFDD,
FFF7,
FFFC,
FFFC,
FFDA,
000D,
000C,
000D,
FFEB,
FFFB,
FFFA,
FFF1,
0005,
FFEC,
0002,
FFF3,
000D,
0003,
0015,
FFFE,
FFFE,
FFFA,
FFFC,
0003,
FFFA,
FFCA,
FFFF,
FFF2,
001B,
FFF9,
0006,
FFC4,
0000,
FFD9,
002F,
FFEF,
FFFA,
0005,
0005,
FFF3,
001E,
0012,
FFFD,
0001,
FFF9,
FFDD,
FFDD,
0006,
FFDE,
0005,
0001,
FFF0,
001C,
FFFE,
0000,
000C,
002E,
FFFD,
FFE8,
FFEA,
0011,
0011,
0003,
0010,
FFE2,
FFEE,
FFFF,
0011,
FFFB,
FFF0,
FFF9,
0012,
FFF6,
0011,
FFF7,
FFE1,
0007,
001D,
0006,
FFE7,
0003,
0007,
0016,
FFE8,
FFF7,
000D,
FFD4,
FFE4,
FFEB,
0000,
003F,
FFF7,
0009,
FFF3,
0001,
0000,
FFDD,
0001,
000D,
0013,
0012,
000A,
0009,
0008,
FFF5,
FFF8,
0007,
FFEA,
0018,
0017,
FFFD,
FFEE,
FFE8,
FFFA,
FFEE,
FFEE,
FFF4,
FFFC,
000F,
FFFB,
FFEB,
0020,
0017,
FFFB,
FFEF,
FFFE,
FFF7,
0013,
000C,
0002,
001C,
FFF1,
FFD9,
000A,
0003,
0004,
FFF3,
0003,
0004,
FFEA,
FFFF,
FFE8,
FFFC,
0011,
0020,
0009,
FFFA,
FFFF,
FFDE,
0005,
FFEE,
0003,
FFFF,
FFEA,
0038,
FFF5,
0010,
000E,
FFF9,
0007,
FFF7,
FFF3,
FFF9,
FFEE,
0013,
0033,
FFFA,
FFFE,
FFE2,
FFEF,
FFE4,
FFF4,
0001,
0014,
0002,
FFE9,
000B,
FFED,
FFF6,
0004,
001E,
FFE8,
0024,
0008,
FFEC,
FFE5,
FFDA,
FFFC,
FFEE,
FFE3,
FFF8,
0002,
0039,
000C,
0001,
FFE9,
0000,
0001,
FFFF,
FFF0,
FFD7,
FFF6,
FFEA,
FFFA,
0003,
0015,
FFF3,
0001,
FFE5,
0001,
0007,
FFF7,
FFFF,
FFDF,
0018,
0009,
0006,
0003,
FFF9,
000C,
0037,
0015,
FFFA,
FFEF,
0004,
0023,
0016,
FFDB,
0020,
000C,
0020,
0014,
FFF3,
0029,
FFFD,
0001,
000B,
FFF1,
000D,
FFF9,
0037,
0001,
FFF8,
000E,
FFD4,
FFFE,
0008,
FFFD,
0003,
000B,
0017,
0029,
000E,
000E,
0008,
FFF4,
FFF3,
000B,
0001,
000E,
FFDB,
0016,
FFFD,
0013,
0032,
FFE0,
FFEB,
0000,
0016,
000E,
0008,
FFFE,
FFF9,
FFF7,
FFF9,
FFEA,
FFF2,
0004,
FFF3,
0002,
0042,
FFFD,
000B,
FFFB,
0006,
000D,
FFF0,
0008,
FFF6,
0008,
002B,
0000,
000E,
FFF2,
000E,
0006,
FFEC,
FFE8,
FFF7,
FFD0,
0011,
0015,
FFE0,
FFF8,
0004,
FFFD,
000E,
0018,
FFFA,
FFFE,
FFE3,
FFFD,
000C,
0001,
0017,
FFFC,
0008,
0011,
0003,
0034,
FFE9,
0001,
FFEE,
FFD0,
FFF4,
FFF7,
001A,
FFD5,
000D,
FFF5,
0013,
001D,
0000,
FFF9,
FFF6,
FFFB,
FFF0,
FFF6,
000D,
0009,
FFDF,
0000,
0005,
0014,
0049,
FFF9,
FFFE,
0003,
0005,
0004,
FFFD,
002C,
0000,
FFFF,
FFFA,
0006,
FFF0,
0007,
FFFB,
0008,
0026,
FFF9,
FFFA,
FFFE,
000A,
0014,
0000,
FFFB,
FFFC,
000A,
FFFA,
FFF7,
000F,
FFFE,
000B,
FFFC,
0010,
0014,
000C,
FFEF,
000F,
FFFA,
000B,
FFFE,
001A,
0004,
0007,
FFC1,
FFF6,
0001,
FFF6,
0013,
FFF6,
FFFF,
0009,
FFF9,
0000,
FFF7,
FFF4,
FFEB,
000C,
0013,
0000,
FFF8,
FFFD,
0002,
FFF6,
FFFD,
FFFA,
000F,
FFFF,
0002,
0015,
0011,
000F,
0024,
0003,
0011,
FFFD,
0005,
0015,
FFF3,
0009,
FFD4,
FFF6,
FFF9,
FFED,
000B,
FFFD,
FFCA,
FFEF,
001D,
FFD6,
FFF7,
FFFC,
FFFB,
0014,
0006,
0000,
0012,
FFE0,
0003,
FFFF,
000B,
0011,
0008,
FFF4,
0011,
0005,
000B,
FFCF,
FFEE,
0000,
FFEF,
0007,
0007,
FFF4,
0037,
000A,
FFDC,
FFFB,
FFE1,
FFFB,
FFF1,
0001,
0003,
FFE6,
0001,
000A,
FFF2,
0014,
FFF5,
000C,
0000,
0028,
FFFB,
0009,
FFFA,
0002,
FFFD,
0037,
FFD2,
0009,
FFFD,
0006,
FFFF,
FFF4,
0003,
0001,
0003,
000B,
FFFA,
0000,
000C,
FFFE,
0000,
0002,
0000,
0002,
FFFF,
0008,
000B,
0007,
0002,
FFF0,
FFFF,
FFFF,
0006,
0000,
FFFA,
0001,
0004,
FFFE,
FFF1,
FFFA,
FFFD,
FFFB,
0008,
FFFE,
0010,
0003,
FFFF,
FFFD,
FFFD,
0044,
0003,
FFF9,
FFF9,
0000,
FFFD,
FFF9,
0006,
000D,
FFC1,
0014,
000D,
0004,
0001,
0000,
000F,
0005,
0000,
FFF1,
FFFF,
FFFE,
0007,
FFFD,
0003,
0006,
FFFF,
0005,
FFFB,
FFFB,
000A,
0009,
0008,
000C,
0002,
FFFB,
0005,
0003,
0002,
FFFB,
FFD7,
0004,
FFFF,
FFFF,
FFF1,
FFF7,
0005,
FFFF,
000D,
000A,
FFFF,
0009,
0002,
000C,
0009,
000A,
FFF9,
0002,
FFF0,
000D,
FFFD,
0000,
FFFA,
0004,
000A,
0007,
FFF2,
FFFD,
FFFE,
FFF4,
FFF5,
FFFE,
0000,
003E,
0005,
FFEF,
000B,
0000,
FFFE,
FFFB,
FFC4,
0003,
0009,
0005,
0005,
FFFA,
FFFF,
FFF8,
0005,
FFF7,
000F,
FFFB,
0001,
0007,
0004,
FFFF,
000F,
FFFB,
FFFF,
FFFB,
000D,
0010,
0014,
FFFB,
0005,
FFFB,
FFFA,
001C,
0026,
0004,
0001,
FFEE,
FFDC,
0008,
0003,
0014,
000B,
FFFC,
FFFF,
FFF9,
FFFF,
0000,
FFFD,
0000,
FFFA,
FFFD,
0001,
000B,
0002,
0001,
FFFF,
FFFE,
FFFF,
FFFB,
FFFD,
FFFD,
FFFA,
0001,
FFF9,
FFFF,
0004,
000B,
FFF0,
FFF7,
000A,
0007,
0005,
0007,
0000,
FFF7,
000A,
0004,
FFF6,
FFFD,
0012,
0005,
FFF8,
000E,
FFEB,
FFFC,
FFFC,
000A,
0012,
FFF5,
FFF8,
FFFB,
001D,
0000,
001B,
FFEB,
0010,
FFF8,
FFF0,
FFF9,
0002,
0001,
FFFD,
000D,
000F,
FFF8,
001E,
0000,
FFF0,
FFF4,
FFF5,
FFED,
0009,
000D,
FFFB,
0007,
0002,
000B,
0007,
000A,
000B,
000D,
0009,
000A,
FFFA,
0005,
0009,
FFF2,
0003,
000E,
0006,
FFF9,
0007,
0008,
FFDB,
FFFD,
0009,
FFEF,
0003,
FFF2,
000A,
0009,
FFF5,
0015,
0007,
0024,
FFEA,
FFF7,
FFF4,
0007,
FFE0,
000C,
000A,
0010,
FFF7,
0004,
FFE7,
FFF0,
FFFF,
FFFC,
000A,
FFF9,
FFDD,
FFE1,
0016,
FFF3,
FFE7,
FFF3,
000A,
FFFE,
0003,
FFF1,
000A,
FFFA,
0001,
0008,
0014,
FFEF,
FFF6,
FFFB,
0036,
0010,
FFFD,
0002,
FFE4,
0003,
FFF3,
0005,
000A,
0004,
FFFE,
0001,
FFF7,
FFF8,
0018,
FFF7,
FFFC,
FFFB,
0002,
0000,
FFFB,
0009,
0001,
FFF6,
0008,
FFFE,
0014,
FFF1,
0003,
FFD8,
FFE9,
FFF4,
000D,
0006,
001C,
FFF1,
FFFB,
FFFD,
FFF7,
FFEC,
FFE5,
0009,
FFFD,
000F,
0002,
FFF7,
0004,
FFFE,
FFFF,
FFF4,
0006,
000C,
FFFA,
FFED,
FFF3,
0000,
FFF9,
FFF7,
0000,
FFFF,
FFFF,
FFE1,
FFF9,
0001,
000B,
000E,
FFFB,
0000,
FFF8,
FFF8,
FFE7,
000C,
0002,
0000,
000D,
FFF6,
0005,
0016,
000B,
0004,
0003,
0000,
FFD9,
0007,
0009,
0013,
0003,
0004,
0000,
0005,
FFEC,
FFF9,
0006,
FFFB,
FFFC,
FFDF,
0003,
FFF1,
FFE3,
FFE6,
000A,
FFDE,
0015,
FFFE,
FFF7,
000F,
0001,
0011,
0003,
000A,
0009,
FFFE,
FFFB,
FFEF,
000A,
FFEA,
FFF0,
0001,
FFFB,
FFEC,
0003,
001B,
0001,
0012,
0004,
FFDA,
0007,
FFE1,
0018,
FFFD,
FFFA,
FFFE,
0022,
0006,
FFFA,
0010,
0023,
0045,
FFF1,
FFF7,
0000,
FFFA,
001B,
000A,
0002,
FFFB,
FFFB,
0021,
FFE9,
0009,
FFF7,
0001,
001E,
FFF8,
0026,
000B,
0000,
FFFB,
0006,
FFF3,
0012,
FFF3,
0011,
0009,
FFFF,
FFFD,
FFDB,
FFD7,
FFD9,
0006,
FFFB,
0041,
0008,
FFE5,
0001,
FFEE,
001B,
FFF1,
FFF4,
0013,
000D,
FFFC,
FFEA,
0024,
0003,
FFFC,
FFF8,
FFCA,
FFFF,
FFE7,
0008,
0016,
000F,
FFF9,
FFEE,
0007,
0008,
0007,
000C,
000E,
FFFA,
002E,
FFF4,
FFFF,
0004,
0002,
0009,
FFF6,
FFD5,
FFFC,
0006,
0001,
0001,
0016,
000D,
FFFD,
FFF7,
FFE4,
FFE2,
FFDE,
FFF7,
FFFE,
0008,
FFA1,
FFEC,
0008,
0016,
FFFA,
001A,
FFF8,
0006,
001F,
FFE1,
0001,
FFCA,
000D,
FFFF,
FFFF,
000D,
0004,
FFFD,
FFEC,
FFF9,
0012,
FFE9,
0009,
0019,
FFFD,
000A,
001B,
0013,
000B,
FFEB,
FFE8,
0000,
0001,
0020,
0001,
FFEB,
FFF0,
001C,
FFEE,
0007,
000E,
FFFC,
0010,
0029,
0001,
0004,
FFF5,
001D,
001A,
FFFF,
0020,
FFF2,
0003,
FFFD,
0000,
0007,
FFF0,
FFEA,
000F,
FFE8,
0000,
0002,
FFF0,
FFE3,
FFEC,
0004,
FFF4,
000B,
0012,
FFF4,
FFF5,
0018,
FFFA,
000A,
0017,
0011,
FFE7,
FFFF,
FFE0,
FFFE,
0018,
FFEC,
FFFC,
FFDE,
FFFB,
000D,
FFD7,
0016,
0001,
FFFF,
FFD8,
000A,
0001,
0003,
0013,
FFFA,
FFF6,
FFE7,
FFFC,
0013,
0007,
000F,
FFEA,
0003,
000F,
FFF4,
000E,
FFFA,
0012,
0004,
FFFE,
0011,
0023,
FFF8,
000B,
FFF2,
000E,
0010,
0012,
000B,
000A,
FFC8,
FFFB,
FFF1,
FFD4,
0007,
FFFE,
FFF2,
FFEC,
FFDE,
FFFB,
FFEA,
000D,
FFF8,
0002,
FFFB,
FFEB,
FFF8,
0004,
FFFD,
0029,
FFE5,
001E,
FFFE,
001E,
0007,
FFE9,
FFF9,
0011,
FFDD,
FFF0,
FFEC,
0029,
FFEB,
FFFC,
FFF8,
FFF2,
FFFC,
FFF7,
FFD4,
FFEA,
FFFD,
000D,
FFF9,
000C,
FFBD,
FFE8,
FFF8,
0025,
FFF6,
FFF4,
000C,
FFFF,
002F,
0003,
000C,
FFFA,
0004,
000A,
FFF7,
0002,
000A,
001C,
000C,
0000,
0004,
002C,
001A,
FFC2,
0008,
FFDC,
FFFF,
0015,
FFEC,
0004,
FFFE,
FFEA,
000F,
000E,
003A,
FFF9,
FFE3,
0011,
0000,
FFEC,
FFFB,
0003,
0008,
FFEF,
FFFE,
0001,
002B,
001B,
002E,
0022,
0012,
000C,
0014,
0005,
0004,
FFF9,
FFFC,
0003,
FFFE,
FFEB,
000D,
000A,
0019,
0015,
0015,
FFF4,
0032,
000C,
FFFF,
FFEF,
FFFC,
FFF0,
0011,
0011,
0004,
FFE7,
0001,
000D,
0000,
000A,
FFFC,
FFDF,
FFEF,
FFE6,
FFFF,
000B,
FFCD,
FFF9,
0005,
FFEA,
0006,
0016,
000E,
0017,
FFF8,
0006,
FFF2,
FFF6,
0001,
FFFB,
FFF1,
FFFF,
FFF9,
FFE8,
FFF9,
FFF8,
FFCE,
001A,
0001,
0006,
0001,
FFFB,
FFFE,
0003,
0003,
0005,
0003,
0009,
FFFD,
FFF6,
FFEB,
FFFF,
0038,
FFF9,
0000,
0003,
FFF9,
FFF9,
0006,
0007,
FFF6,
0002,
FFFE,
0003,
FFCA,
FFF7,
FFFA,
0017,
FFFF,
000E,
0005,
0006,
FFF4,
FFF6,
0001,
0020,
FFFD,
003B,
0004,
FFF9,
0009,
0001,
0004,
0040,
FFE8,
0006,
FFF8,
0024,
FFC3,
FFD0,
000A,
0004,
FFFA,
0006,
FFF1,
0025,
FFFD,
FFF6,
FFFB,
0007,
FFEB,
0007,
FFFE,
FFFE,
FFEA,
0002,
0003,
FFC7,
0002,
0007,
FFF0,
FFFF,
FFF8,
FFFD,
001E,
0008,
FFFF,
0001,
0028,
001C,
FFFE,
FFED,
000B,
0007,
FFF9,
FFFA,
FFD9,
0005,
001F,
0000,
FFF5,
FFF3,
FFE4,
FFFB,
0007,
000F,
0000,
FFFE,
0000,
FFF1,
FFF9,
0003,
0002,
0004,
FFFD,
0007,
0012,
0006,
FFF8,
FFFE,
FFFE,
FFFD,
FFEF,
FFFE,
FFF9,
FFFE,
FFFE,
0003,
0010,
0007,
FFFB,
000B,
0007,
FFFD,
0006,
FFFC,
0000,
FFFA,
FFF2,
0000,
000B,
FFF6,
FFF7,
0004,
000D,
FFFD,
0005,
FFFC,
0003,
0000,
0006,
FFFF,
0003,
0003,
FFFE,
FFFD,
FFFD,
0002,
FFFB,
001B,
0003,
000A,
FFFD,
FFFF,
FFE9,
0003,
FFFE,
FFFA,
0003,
0006,
001C,
FFF3,
FFF0,
0001,
0002,
0008,
FFFF,
FFFC,
FFFD,
000E,
0006,
0011,
FFD7,
001F,
FFE4,
FFFE,
0007,
FFEB,
0026,
FFFF,
FFF1,
FFF3,
FFF9,
0001,
FFFB,
0000,
FFFC,
0013,
FFF6,
000C,
FFE2,
003C,
0017,
000B,
FFFA,
FFFD,
0011,
0018,
FFFF,
FFED,
0029,
FFD2,
0014,
FFE1,
FFEB,
0003,
FFF9,
0019,
FFEA,
FFFD,
FFFA,
FFEE,
FFE7,
FFE8,
0024,
0006,
FFEC,
FFF7,
FFFE,
0008,
FFFA,
000C,
FFFA,
002B,
0002,
FFFA,
FFF4,
FFFF,
0014,
FFFC,
000F,
FFFF,
FFE0,
FFFB,
FFEC,
0010,
0010,
000A,
0010,
0002,
0027,
001B,
FFF8,
0005,
0010,
FFF8,
0013,
FFFE,
FFE9,
000E,
FFCC,
FFE6,
FFEE,
000B,
FFF2,
0013,
FFD4,
FFE8,
001E,
0004,
0007,
0002,
0003,
0010,
FFE5,
0010,
0015,
FFE9,
001C,
FFF2,
0001,
FFF2,
FFF6,
000E,
0052,
0010,
FFF6,
0014,
0014,
0016,
FFFD,
FFFA,
0016,
FFF9,
0016,
FFFB,
FFBE,
000A,
FFF9,
FFF4,
FFFF,
0015,
FFD0,
0006,
0006,
0031,
FFEC,
FFDF,
FFED,
FFDC,
000F,
0007,
FFF7,
FFFE,
0007,
FFF2,
0016,
FFF0,
0029,
0006,
001D,
FFFC,
FFF5,
0009,
0002,
FFFF,
0012,
FFEF,
FFFF,
FFFE,
FFEC,
FFFA,
FFEE,
000E,
FFDD,
FFCA,
0038,
0004,
001F,
0014,
FFE9,
FFEC,
0008,
0006,
0010,
FFF1,
001D,
0018,
FFE7,
FFE9,
FFE9,
FFFF,
FFFB,
0019,
FFC3,
0003,
FFEA,
0027,
0006,
FFE7,
0000,
FFD1,
FFFE,
0002,
0003,
FFFE,
FFFC,
000C,
FFFF,
FFF9,
FFF3,
0005,
FFFE,
000A,
FFF5,
0014,
000D,
FFEC,
FFF5,
FFE8,
FFF8,
0005,
0003,
000B,
FFEC,
FFF9,
0004,
001A,
FFFC,
000A,
0029,
0004,
0006,
0007,
FFEE,
FFFA,
FFE1,
0013,
FFEB,
FFFE,
0003,
FFFB,
0001,
0006,
0013,
FFF7,
FFE7,
FFF3,
000B,
FFF7,
0004,
0014,
FFF4,
0005,
FFFC,
FFEA,
FFF5,
FFF7,
0011,
0001,
FFFF,
FFEB,
FFF2,
000B,
0009,
FFF2,
FFEB,
0008,
FFF5,
FFE9,
0004,
FFD9,
FFFF,
FFF5,
0005,
0003,
FFF3,
FFE2,
001D,
FFFF,
0018,
FFE5,
0017,
000F,
FFEE,
FFFF,
FFEA,
FFFD,
0007,
FFE0,
FFE3,
0005,
FFFB,
0004,
001E,
0027,
FFF7,
FFE5,
0020,
FFFC,
0004,
000F,
0021,
FFF7,
0005,
0013,
FFF4,
0014,
FFF1,
FFFC,
0009,
FFFA,
FFF5,
FFF9,
0003,
0001,
FFFE,
FFF7,
0009,
0012,
0023,
000D,
FFEE,
FFFA,
0015,
0006,
0013,
0007,
0005,
FFFD,
FFFE,
FFFB,
FFFE,
0000,
FFFF,
0007,
FFFD,
FFF4,
FFFB,
FFF3,
FFFF,
002B,
0016,
FFFE,
FFFC,
FFF4,
0001,
FFFB,
FFFC,
000B,
0008,
0001,
0002,
0005,
0006,
FFF9,
FFFD,
FFFE,
0006,
FFFF,
0000,
0000,
FFD9,
FFF3,
000B,
000F,
0005,
0008,
FFF1,
FFFD,
0001,
0003,
FFFA,
000A,
0016,
FFF4,
0015,
0009,
FFF6,
FFFD,
FFFD,
0012,
0002,
0000,
FFFC,
FFE5,
0004,
FFE9,
0020,
FFFC,
FFEE,
FFE8,
FFFF,
FFFC,
FFF4,
0012,
0015,
FFEB,
FFFD,
FFFA,
000E,
0005,
FFDD,
FFF6,
0001,
FFF2,
000E,
FFEA,
0005,
0003,
0028,
0014,
FFFE,
FFD7,
000E,
0029,
FFFA,
0003,
000B,
FFF6,
FFFF,
0008,
0009,
FFF8,
FFBE,
0000,
0017,
0038,
FFED,
FFBA,
FFFF,
001F,
0000,
0028,
000D,
000F,
001C,
002B,
000A,
FFE0,
0001,
FFF9,
001D,
0009,
0001,
0001,
FFCF,
FFD2,
FFFA,
0031,
FFFD,
FFDA,
0001,
0007,
0007,
0018,
FFF5,
FFD9,
000A,
FFF1,
FFF7,
FFF8,
FFFF,
000B,
0000,
FFF2,
FFC2,
001E,
FFE5,
FFFC,
000D,
FFE9,
FFFD,
FFF2,
FFF6,
FFEF,
FFD3,
FFFE,
0009,
0001,
0018,
FFEF,
FFFC,
FFF0,
0010,
0026,
0003,
0035,
FFC5,
FFF0,
000B,
FFF3,
0016,
FFF6,
FFDD,
FFEA,
FFFB,
0005,
FFE2,
FFF1,
FFFB,
FFF8,
003A,
FFE2,
FFFD,
FFFF,
FFFE,
0003,
FFFF,
0009,
0002,
FFF5,
0005,
0003,
FFE7,
0000,
0004,
FFFD,
FFF6,
001F,
FFE1,
000B,
FFF8,
FFFE,
FFFA,
0015,
0000,
0010,
FFF7,
FFBB,
0023,
0011,
FFF9,
0014,
FFE9,
FFF4,
FFF1,
002F,
0006,
FFFE,
FFFD,
0024,
FFDB,
FFB2,
FFF3,
000C,
FFEE,
FFF6,
0004,
0009,
0010,
FFD7,
0000,
FFFB,
FFF4,
000B,
FFE9,
0011,
FFEE,
0004,
FFE2,
FFE0,
FFF8,
002A,
0013,
0010,
FFFB,
000D,
002A,
0007,
FFFB,
0021,
0047,
000F,
0007,
000B,
0004,
FFDE,
0005,
FFF1,
0009,
FFD0,
0012,
002E,
0002,
0002,
FFFE,
0016,
FFF8,
002F,
FFF8,
FFE2,
001B,
FFFC,
0001,
FFFB,
FFF6,
0009,
000D,
FFE5,
0003,
FFF3,
000F,
000D,
0001,
000A,
FFEF,
FFF9,
000C,
FFFB,
0008,
0013,
FFF3,
0007,
FFF4,
0019,
0002,
0008,
0005,
0001,
0010,
000F,
FFF8,
000E,
000A,
FFED,
FFFF,
FFEC,
FFF1,
FFFE,
FFFE,
0004,
FFF5,
0008,
0012,
0006,
FFE4,
FFF9,
FFF3,
001A,
0004,
0009,
001E,
0000,
FFFF,
0003,
0004,
FFF0,
0008,
0011,
0017,
000E,
FFFD,
FFED,
0006,
FFF3,
FFF1,
FFFF,
0004,
FFFF,
FFF4,
FFF7,
FFFB,
0008,
0004,
FFF1,
0009,
0013,
FFF7,
FFF0,
0008,
FFE0,
0003,
0004,
FFF0,
FFF4,
001F,
FFFE,
0004,
FFE4,
000D,
FFEF,
0000,
0002,
FFE7,
000A,
FFF1,
000C,
FFFA,
FFED,
0018,
0007,
FFF9,
FFFA,
FFF3,
FFF4,
000F,
0005,
FFF1,
0001,
FFFA,
FFF8,
FFE1,
FFF6,
000B,
0002,
0003,
0001,
0009,
FFFB,
0008,
000D,
FFFF,
FFFC,
0002,
FFF5,
FFF0,
0002,
0005,
000D,
0007,
FFF1,
000C,
001E,
0003,
001B,
FFFE,
FFFB,
FFFF,
FFF4,
001E,
FFF4,
0012,
FFFA,
FFF5,
FFF6,
FFE6,
0016,
FFF5,
FFF6,
0001,
0002,
0005,
0000,
0005,
0012,
FFF9,
FFEC,
0010,
FFDF,
0004,
000E,
FFFD,
FFF9,
000D,
FFF9,
FFE8,
0005,
0000,
FFF7,
FFF0,
000A,
FFEC,
0001,
000A,
FFF3,
FFFB,
FFD2,
0000,
0001,
001B,
FFF4,
FFFF,
FFE6,
0006,
000C,
FFFE,
000A,
FFFD,
0002,
0009,
001F,
0016,
FFE7,
FFFB,
FFFA,
0014,
FFD5,
FFFB,
FFE9,
FFF7,
0016,
0002,
FFFD,
FFE7,
000A,
FFF6,
0034,
001A,
FFF8,
FFFE,
FFC4,
0004,
FFFC,
000C,
FFF2,
0009,
0002,
FFDB,
0015,
FFF7,
FFEC,
000C,
0006,
0037,
FFCF,
FFF1,
FFFF,
FFEB,
0010,
000A,
0011,
FFF2,
FFF9,
0049,
0016,
0008,
FFF3,
FFE6,
0007,
0008,
FFF5,
FFBF,
002C,
0012,
0007,
0004,
FFFE,
0004,
0005,
0008,
FFFB,
0007,
FFFC,
0021,
FFF4,
0001,
0003,
FFEB,
0000,
0025,
FFF1,
FFBB,
0024,
0006,
FFD7,
001E,
FFFD,
0000,
0002,
FFE7,
0004,
0035,
000A,
FFE1,
0005,
000B,
001A,
0005,
0013,
0009,
0002,
0026,
001F,
0000,
0005,
001D,
0002,
FFEF,
0029,
0005,
FFFB,
FFD2,
FFEE,
0006,
0003,
FFF3,
FFE5,
FFF6,
FFFF,
0023,
0001,
001B,
0017,
0027,
0017,
000A,
FFE1,
FFF5,
FFFF,
FFFB,
FFF6,
FFF9,
0021,
FFDD,
0005,
0005,
FFF0,
FFED,
0007,
0009,
0003,
0003,
001A,
0005,
0003,
FFF8,
0007,
FFE4,
0000,
0009,
0011,
FFF5,
FFE3,
0013,
0021,
FFB9,
0028,
0019,
000E,
0001,
0010,
0004,
0001,
0001,
0016,
0005,
0008,
FFE9,
FFEF,
0002,
FFD4,
FFEA,
FFEA,
FFF6,
FFE3,
0002,
FFB8,
FFF0,
FFFA,
0003,
000B,
0010,
001A,
0002,
0018,
0018,
FFF8,
0005,
FFF2,
0000,
0012,
FFEC,
0002,
FFE7,
FFE6,
0000,
FFFD,
FFFF,
FFE3,
0015,
FFF8,
FFF0,
FFF2,
FFFF,
FFE7,
FFED,
001A,
001E,
FFF7,
FFFF,
0013,
FFF8,
000C,
FFF2,
FFFD,
0002,
0002,
FFF8,
0004,
FFFF,
FFFE,
FFF9,
FFFB,
FFFA,
FFF6,
FFF2,
FFFC,
FFFE,
0003,
0001,
0004,
FFF9,
FFFA,
FFFE,
0000,
FFFD,
0005,
0009,
FFF2,
FFFF,
FFFF,
0016,
0001,
000E,
FFF6,
FFFB,
FFFD,
0008,
FFCE,
FFFE,
FFFD,
0003,
FFF6,
0008,
FFE5,
0010,
0005,
FFD8,
0000,
0000,
FFF7,
FFF4,
0003,
FFF3,
FFF6,
0005,
FFFE,
FFFF,
000D,
FFF7,
0010,
0003,
FFF9,
0000,
FFEC,
0000,
0005,
0007,
FFF4,
FFD9,
0008,
0001,
0014,
0001,
FFFA,
0004,
000F,
0017,
0003,
0009,
FFF8,
FFFF,
0003,
FFF4,
FFFB,
FFEF,
FFFD,
0004,
0000,
FFFC,
FFF9,
FFFA,
FFE7,
0004,
0001,
001E,
FFEC,
0000,
0008,
FFF3,
0009,
FFF3,
0004,
000B,
000A,
FFFC,
000D,
FFFD,
0009,
FFFB,
FFEC,
0001,
0012,
FFF5,
0003,
FFF8,
FFF6,
0022,
FFFF,
FFFA,
FFF4,
FFF6,
FFFD,
0009,
FFFB,
FFFD,
0005,
FFEE,
0002,
FFFE,
FFF7,
FFF4,
0002,
FFEA,
FFFB,
FFFC,
FFFE,
FFF9,
FFF5,
000E,
0006,
