memory_initialization_radix=16;
memory_initialization_vector=
FFF0,
FFE8,
000F,
FFF3,
0001,
FFFD,
FFF8,
FFFF,
0006,
FFFC,
FFFD,
000B,
FFF9,
FFFF,
0003,
0003,
0005,
FFFA,
FFFB,
FFFD,
0004,
0004,
FFEB,
FFF2,
FFEC,
FFFF,
FFFB,
FFFC,
000D,
0016,
0004,
0009,
FFFF,
0010,
0008,
FFF2,
FFFB,
FFF7,
0003,
FFFF,
000B,
0004,
FFF6,
0002,
000E,
0000,
FFF3,
0001,
FFFE,
0010,
0002,
FFFA,
0006,
000E,
0006,
0018,
FFFC,
000D,
FFFD,
FFF7,
FFEB,
FFF7,
0004,
000F,
FFF9,
0004,
FFFB,
FFF8,
FFFF,
FFF2,
FFFF,
0008,
FFF6,
FFF5,
0007,
0006,
001D,
0012,
0009,
0012,
000D,
FFF9,
FFFF,
0011,
000C,
FFFB,
FFFC,
0005,
0002,
FFFF,
FFF8,
000E,
0012,
000A,
FFF1,
0019,
FFFD,
0000,
FFF2,
0000,
0001,
001C,
FFFC,
0004,
0008,
000B,
0018,
0008,
000D,
0007,
FFF2,
0003,
0001,
FFF5,
FFF7,
000C,
FFFA,
0000,
FFFE,
0007,
FFF6,
000B,
FFF2,
FFFE,
FFFD,
FFF7,
000A,
0004,
0001,
0003,
0019,
000B,
FFFE,
000A,
0005,
0003,
0001,
FFFC,
FFF7,
0002,
0004,
FFFE,
000C,
FFFB,
FFFB,
000F,
FFFD,
000B,
FFFA,
000C,
000B,
FFFB,
0000,
0007,
0000,
000C,
000D,
0001,
0003,
FFFF,
FFFF,
0004,
0000,
FFFF,
0005,
FFFC,
FFF5,
0004,
FFFD,
FFED,
0002,
001A,
0008,
FFF6,
000A,
FFFE,
FFF0,
FFFF,
0012,
0006,
FFFF,
FFF8,
0000,
FFFC,
FFFE,
000B,
000E,
000B,
FFFB,
0001,
0009,
0000,
FFF3,
000D,
0005,
FFF6,
0005,
0006,
000A,
FFF5,
FFF6,
0008,
0003,
0004,
0000,
000D,
0003,
000D,
000B,
FFF5,
FFEE,
0011,
000C,
FFF3,
FFFC,
FFFD,
FFF8,
0006,
0008,
0001,
0005,
FFF8,
000F,
FFFB,
FFF9,
0014,
FFED,
0008,
0000,
0004,
001D,
000C,
0008,
000F,
001A,
000A,
FFEE,
FFF7,
000A,
0002,
FFF2,
000A,
FFF7,
FFF8,
0005,
0004,
FFFD,
000A,
0017,
FFF6,
0011,
FFFD,
0004,
FFF1,
0009,
0005,
FFFE,
FFF4,
0002,
0002,
000B,
FFEC,
000D,
0000,
FFFB,
000D,
FFEB,
0010,
0007,
0003,
FFFF,
0000,
0005,
FFFF,
0009,
FFEE,
0001,
FFFB,
0004,
FFFF,
FFFC,
0008,
0003,
FFF9,
000D,
0004,
FFF6,
0001,
FFFF,
FFF1,
0000,
0002,
FFF7,
FFF9,
0006,
0001,
FFDF,
000F,
FFFB,
FFE4,
000C,
0011,
000E,
0003,
0011,
0006,
0000,
FFF6,
0006,
FFEB,
0007,
0015,
000A,
FFFB,
0007,
0009,
FFFE,
0003,
0019,
000C,
0014,
FFFF,
FFFE,
000B,
FFFC,
0000,
0013,
000E,
0006,
0002,
0001,
0010,
000B,
0009,
FFFC,
0008,
FFFF,
0002,
FFF5,
FFF1,
000B,
000F,
000C,
0005,
0015,
0009,
FFFC,
FFFF,
0003,
FFFE,
0007,
0004,
0009,
FFF2,
0005,
FFEA,
FFEF,
FFFD,
0008,
000B,
FFFB,
FFE8,
0004,
FFF7,
FFFF,
FFEE,
FFFA,
FFFB,
000B,
FFEB,
0001,
0003,
0008,
FFFD,
FFEB,
0002,
0001,
0002,
000D,
0003,
FFFA,
000C,
0003,
FFFA,
0001,
FFED,
FFF3,
0000,
FFFF,
FFF6,
0016,
FFFE,
0008,
FFF8,
FFF1,
FFFB,
0005,
FFF2,
0011,
000A,
FFFB,
FFFB,
0009,
FFFF,
000A,
0004,
000A,
FFFB,
0003,
FFF6,
0006,
FFF4,
FFFA,
FFFA,
FFFA,
000C,
0004,
FFFB,
FFEE,
0000,
0014,
FFFC,
000F,
FFF9,
FFFB,
0000,
000D,
0018,
0009,
0005,
0005,
FFFC,
000C,
0005,
0000,
0005,
FFFC,
FFFD,
FFF1,
0000,
0002,
FFF6,
FFFD,
0008,
0002,
001E,
0000,
FFF0,
FFFC,
000B,
000E,
0009,
0008,
FFED,
0001,
FFF5,
0010,
FFFD,
FFEF,
FFFC,
000E,
0005,
000C,
000B,
FFFA,
FFF8,
FFED,
000A,
0009,
000A,
0001,
0022,
000E,
000D,
0008,
0009,
0006,
FFE4,
000F,
FFF3,
0016,
0002,
FFF8,
FFFF,
0001,
FFEC,
0007,
FFFE,
0001,
FFF2,
0000,
FFFD,
0004,
0006,
FFFE,
FFF3,
0004,
0000,
0004,
000A,
0009,
FFF2,
FFFA,
0007,
001D,
000F,
000D,
FFFF,
0000,
FFF1,
FFFD,
0017,
FFFC,
FFFC,
0005,
000D,
000F,
0003,
FFF0,
000D,
0009,
000D,
FFF6,
000F,
0004,
001A,
0007,
FFED,
000E,
0003,
FFFD,
FFF8,
FFED,
000D,
000A,
0016,
0006,
0000,
FFFE,
0004,
0002,
FFEE,
FFF8,
0008,
FFF5,
FFF3,
0005,
0018,
FFE9,
0000,
FFEA,
FFF0,
FFFA,
0009,
FFFC,
0003,
FFF9,
0000,
FFF9,
000A,
FFF8,
FFF9,
FFFD,
001D,
FFFC,
0004,
FFFC,
FFF3,
FFFE,
0003,
0003,
FFFA,
0002,
0005,
FFF5,
000C,
FFFB,
000B,
0002,
0005,
0000,
0008,
0000,
0005,
0000,
FFEF,
0008,
FFFE,
000F,
0011,
FFFC,
FFF5,
FFFD,
FFF9,
0014,
0008,
0004,
0001,
FFEE,
0004,
FFF0,
FFFC,
FFF8,
0001,
0003,
FFEF,
FFF2,
FFE8,
0017,
FFFF,
000D,
FFF7,
FFF1,
0002,
0011,
FFF7,
FFFD,
0016,
FFF6,
0005,
FFFB,
0001,
FFFC,
FFF3,
0000,
0003,
0007,
0001,
FFF9,
FFE8,
FFFD,
FFFA,
0001,
FFF8,
0002,
000A,
FFFE,
0007,
FFFE,
FFF2,
FFFC,
000C,
FFFE,
0006,
FFFB,
0009,
FFF8,
FFFC,
000B,
0019,
0007,
0002,
0008,
0017,
0011,
0009,
FFF8,
FFF8,
000F,
FFF6,
0010,
FFF1,
0011,
000F,
000F,
FFF9,
FFF1,
0009,
FFF9,
0008,
FFF6,
0010,
0012,
FFF3,
FFFA,
0005,
0012,
0002,
FFF9,
0009,
FFFC,
0013,
000C,
FFF5,
0014,
000A,
0003,
FFFC,
FFEB,
0016,
FFF8,
0000,
FFFF,
0012,
000A,
000E,
FFE4,
FFFA,
FFFB,
FFED,
FFF3,
000B,
FFF9,
0010,
FFF7,
FFED,
FFFE,
0012,
0005,
0018,
000B,
0007,
0009,
0007,
FFED,
FFFC,
0004,
0018,
0006,
0009,
FFFE,
0010,
FFF0,
000D,
FFFB,
0001,
FFFB,
000E,
0000,
0002,
0010,
0008,
FFF7,
FFE7,
0005,
0005,
FFFA,
0001,
0006,
0005,
0002,
000C,
FFF8,
0007,
FFFF,
0006,
FFFF,
FFF4,
0000,
0000,
FFF9,
FFF9,
FFF7,
0001,
FFFF,
FFF6,
FFEF,
FFF8,
000C,
0001,
0001,
FFF7,
0016,
0009,
FFFC,
0003,
FFFC,
0004,
000D,
FFE9,
FFFC,
0006,
FFFC,
FFF9,
0005,
0008,
FFFB,
FFFB,
0013,
0001,
0026,
FFEB,
0006,
000E,
0008,
0002,
FFF8,
0001,
FFFD,
FFFF,
000E,
FFFD,
0002,
0001,
0003,
FFF7,
FFFE,
FFF4,
FFFF,
FFFF,
0016,
000E,
FFF3,
0005,
0010,
000C,
0002,
0006,
0003,
FFF6,
FFFA,
FFF5,
FFFE,
0010,
0009,
0000,
000F,
FFFA,
FFFB,
0010,
FFF9,
0004,
0006,
FFFF,
FFE1,
FFEE,
FFFF,
0008,
0012,
0006,
FFF2,
0001,
0005,
FFFB,
000E,
001B,
FFF8,
0001,
0003,
0000,
FFEF,
FFF8,
FFEE,
000D,
0011,
000C,
FFFA,
0006,
FFF7,
FFFC,
FFF4,
000D,
FFFC,
FFFD,
FFF7,
FFF1,
FFF4,
FFFF,
FFDD,
FFFE,
FFF8,
0001,
FFF9,
FFFC,
0001,
0004,
0001,
FFF6,
000F,
FFF7,
FFF2,
0019,
FFFD,
FFFD,
FFEB,
000C,
0002,
FFEE,
0007,
FFEF,
000C,
FFF9,
FFFF,
FFF9,
FFFF,
FFF0,
FFFB,
0000,
FFF2,
000C,
0006,
FFF8,
FFFC,
001C,
0016,
FFF9,
FFF3,
000B,
FFF9,
000C,
FFED,
FFFF,
FFEC,
FFF2,
0012,
FFFB,
FFFA,
FFEA,
000F,
0001,
0001,
FFF6,
0001,
0003,
FFF1,
FFFA,
0008,
FFEA,
0005,
0001,
0002,
0009,
FFFB,
FFF4,
FFFF,
0008,
0000,
0003,
0002,
0000,
FFF9,
FFF1,
0003,
0006,
0017,
000F,
FFF5,
0003,
000F,
FFFD,
0002,
000D,
FFF7,
0008,
FFE3,
0003,
FFFC,
0000,
0000,
FFFA,
0002,
0003,
FFFC,
0005,
0003,
FFFC,
FFFB,
FFF9,
0004,
FFFE,
0009,
FFFB,
000E,
FFEF,
FFF6,
000C,
FFFF,
0000,
FFF0,
0001,
FFF7,
0008,
000E,
0000,
0008,
0000,
0000,
0004,
0003,
0011,
FFF5,
FFFE,
0011,
000C,
000A,
000F,
0005,
FFFE,
0000,
FFE8,
FFFD,
0002,
0000,
FFF9,
0005,
FFF7,
000B,
001D,
FFFE,
000D,
000C,
FFF4,
FFF5,
FFF8,
FFF7,
0009,
001F,
FFFD,
0016,
FFE5,
FFF7,
FFF5,
FFFD,
FFF7,
0005,
FFFE,
FFFE,
FFFE,
0001,
0004,
0002,
0000,
FFFF,
000D,
FFF9,
0001,
FFF9,
002C,
FFFA,
000A,
0015,
0005,
FFFF,
FFFB,
FFF4,
0000,
0004,
0007,
FFF6,
FFEA,
FFF6,
001F,
FFFF,
0011,
000B,
FFF0,
FFFE,
0005,
0006,
FFE7,
FFEF,
FFF0,
FFF9,
0002,
0002,
0000,
FFFD,
0013,
0005,
000B,
0002,
0004,
000D,
FFFA,
0005,
FFFC,
000D,
000B,
0010,
0009,
0007,
0016,
0013,
0017,
0001,
FFDC,
FFF3,
000D,
0003,
FFE5,
FFDE,
FFFE,
0004,
FFF7,
0003,
0003,
FFF4,
FFFC,
0004,
0009,
FFF8,
0015,
000B,
FFFE,
FFFA,
0007,
FFEB,
000C,
0005,
0000,
FFFB,
0014,
FFE9,
0002,
0016,
000B,
0000,
FFF6,
000B,
FFFF,
FFE5,
FFFD,
000C,
FFFE,
0001,
FFFB,
0002,
FFF6,
0001,
FFE8,
FFF1,
0006,
0012,
FFF9,
FFFE,
000B,
FFFE,
0005,
000C,
000C,
0014,
0000,
0005,
000D,
FFF7,
FFFB,
0014,
0001,
FFFD,
000A,
FFF9,
0011,
FFF2,
FFED,
FFFC,
0007,
FFFF,
FFFD,
FFFD,
FFD6,
000E,
0001,
FFED,
0002,
FFFD,
FFFF,
0009,
0007,
FFED,
FFF6,
FFFD,
FFFE,
FFFF,
0010,
000D,
0009,
0008,
0014,
000C,
0002,
0006,
FFFE,
0002,
FFFD,
FFF9,
000E,
FFE3,
FFE5,
FFFF,
FFFF,
FFEC,
0009,
0002,
FFF3,
0002,
0008,
0013,
0009,
FFFD,
FFE7,
FFF1,
FFDD,
FFEE,
0009,
0001,
0006,
0000,
0000,
0008,
FFFA,
0003,
FFDF,
0001,
FFF7,
FFFC,
0007,
FFF9,
FFFE,
0007,
0011,
FFEE,
FFFC,
000E,
FFFB,
0008,
0003,
FFF0,
FFFF,
FFF8,
FFF9,
FFFC,
000B,
FFF8,
FFF6,
FFF1,
0000,
0010,
FFF1,
0006,
0003,
FFF8,
FFF4,
000C,
FFFB,
FFFC,
FFFB,
0002,
0003,
FFFF,
FFF1,
FFF3,
FFED,
000F,
0027,
FFF0,
0000,
FFFD,
0006,
FFFE,
FFFE,
000D,
0000,
000E,
0011,
FFF1,
FFFA,
0001,
000B,
FFF4,
0002,
FFFB,
0006,
FFF0,
FFF3,
FFFE,
0005,
000F,
000F,
0000,
0007,
FFF1,
FFF9,
0011,
FFEC,
0000,
0006,
FFFC,
FFF9,
0008,
FFFB,
FFFD,
0003,
FFFB,
0001,
0014,
FFF5,
FFFF,
FFF2,
000F,
FFF8,
000C,
FFF2,
0011,
FFFB,
FFFB,
0002,
000F,
0004,
000C,
0002,
0012,
0007,
FFEE,
FFFA,
FFFD,
FFF5,
0004,
0002,
0009,
FFFD,
FFFE,
FFF4,
0005,
FFF3,
0000,
000A,
0005,
000D,
0008,
FFF4,
000F,
FFF9,
FFFE,
000D,
0003,
FFF6,
0003,
0012,
FFE4,
FFFA,
FFF8,
0005,
000B,
0008,
0019,
FFF2,
0005,
FFFE,
0006,
0001,
0003,
FFFA,
FFFE,
0002,
0002,
0009,
FFFA,
0008,
0008,
FFF4,
FFFF,
0004,
0000,
0002,
0010,
000E,
0000,
0004,
FFF6,
000F,
FFF9,
000D,
FFF0,
0002,
000A,
FFF9,
0011,
FFF9,
0013,
0016,
FFF4,
FFF2,
FFEE,
FFFD,
FFEB,
FFF7,
0007,
FFF7,
FFF7,
0008,
FFFD,
FFE2,
FFFF,
FFFB,
FFE6,
0002,
FFFB,
0000,
FFF5,
0002,
0017,
001B,
FFEB,
FFFE,
0012,
000B,
0009,
0009,
FFFB,
0012,
FFF5,
FFF3,
FFF9,
FFF8,
FFF6,
0000,
FFF0,
0009,
FFF6,
000A,
0000,
0002,
000A,
FFFC,
000B,
FFFC,
FFF0,
FFF4,
0006,
FFFA,
FFFB,
FFF3,
000E,
0004,
FFF1,
FFF4,
FFF8,
000A,
FFFE,
FFFC,
FFEE,
FFFE,
FFF8,
FFFB,
FFEB,
FFFC,
000F,
0001,
FFED,
FFF7,
0000,
FFFF,
FFFA,
0002,
000A,
FFFA,
FFFC,
FFFD,
FFF5,
FFF8,
FFFF,
0000,
FFF8,
0006,
FFF8,
FFF2,
0000,
FFFF,
FFFE,
0005,
0009,
000B,
000E,
0003,
0002,
FFF6,
FFED,
FFFC,
0001,
000A,
FFFF,
0006,
FFFC,
FFF3,
0006,
0005,
FFF8,
0005,
0013,
000D,
0007,
FFFC,
FFFC,
000C,
0000,
FFF5,
0003,
FFF7,
FFF7,
FFFE,
FFEC,
FFFA,
0002,
FFFD,
0006,
0011,
FFFC,
000B,
FFDE,
FFE8,
0006,
0021,
FFFD,
0009,
0016,
FFF6,
FFFA,
FFFB,
FFF8,
0005,
FFF7,
0003,
0009,
0005,
000A,
FFFD,
0002,
000D,
0016,
0003,
0002,
000A,
FFFB,
FFFA,
FFF2,
000D,
0000,
FFF6,
FFFF,
FFEE,
0000,
FFFF,
FFF9,
0006,
0002,
001C,
000D,
FFF5,
FFFD,
0008,
FFF1,
FFFC,
000E,
0001,
FFF7,
0013,
0010,
FFF2,
FFFF,
FFF4,
FFF3,
FFFD,
0004,
0005,
0004,
0004,
0009,
FFF3,
0001,
FFF9,
0003,
FFFC,
FFFA,
FFDF,
002B,
FFFB,
0000,
FFFE,
FFFC,
FFFA,
FFFA,
FFFD,
FFF2,
0021,
FFF5,
0001,
FFFB,
0004,
0009,
FFF7,
0018,
001B,
0003,
FFED,
FFE7,
FFFF,
0008,
0001,
0002,
FFF5,
000F,
FFF7,
0016,
0002,
0009,
000E,
FFE9,
000C,
FFF8,
0001,
FFFA,
0001,
FFF5,
000A,
000A,
0005,
0013,
FFE9,
000B,
FFFC,
FFF8,
0003,
FFFD,
FFFD,
FFFF,
FFFB,
0006,
0000,
0000,
0007,
0000,
0002,
FFF1,
0003,
FFFC,
FFEC,
FFEC,
000D,
0000,
FFF3,
000B,
FFF9,
000A,
FFF8,
0002,
0001,
FFFF,
FFF6,
FFF4,
FFFD,
FFFB,
FFF8,
000A,
FFFB,
FFFC,
000A,
FFFF,
FFFF,
FFF7,
001C,
0007,
FFF7,
FFE7,
0005,
0005,
0007,
FFEA,
FFFA,
FFFF,
FFFA,
0002,
FFFD,
000D,
000B,
000D,
000A,
FFF6,
FFF6,
0005,
FFFC,
FFE5,
0003,
FFD8,
FFF6,
FFFD,
0012,
FFF8,
0000,
0007,
FFF8,
0005,
0015,
FFF8,
0000,
FFFE,
FFF1,
FFFC,
FFFC,
000D,
FFFA,
FFFF,
0009,
FFF4,
001D,
FFF9,
0002,
FFFE,
0001,
0001,
0006,
0002,
FFF4,
FFF8,
0007,
FFFD,
000C,
FFF8,
FFFF,
001C,
0008,
FFFB,
000A,
0000,
FFF7,
0002,
FFFC,
0008,
FFFE,
FFF2,
0005,
0007,
0005,
FFF3,
0005,
FFFC,
0005,
FFEE,
FFFD,
0008,
0007,
0001,
000F,
FFF2,
FFEC,
0015,
0007,
FFF3,
FFF8,
0002,
0004,
0004,
FFFC,
FFF2,
000E,
FFE8,
FFF8,
FFF0,
0008,
0001,
0002,
0003,
FFFE,
FFF9,
FFF2,
FFFB,
000D,
0003,
FFF2,
FFE6,
FFFA,
0008,
FFF5,
0009,
0010,
0003,
0002,
FFF7,
0001,
FFF9,
0006,
0003,
0003,
FFF4,
0003,
001E,
000D,
FFEE,
FFF0,
0018,
0012,
0005,
0009,
FFF3,
FFFF,
FFE5,
0001,
FFFE,
000B,
FFE8,
0007,
FFF5,
FFFD,
0009,
FFFB,
FFF3,
001A,
0006,
0007,
FFFB,
0001,
000D,
0001,
FFEE,
0004,
0002,
FFFD,
0006,
FFFC,
FFFF,
FFFC,
FFF3,
001D,
0000,
FFF8,
FFFC,
FFFC,
FFF9,
FFFB,
0013,
0001,
0000,
FFFC,
000B,
0009,
001F,
0003,
FFFF,
FFFF,
0001,
FFFB,
0007,
000B,
FFD8,
FFFB,
0001,
0006,
0001,
0001,
FFFD,
FFF4,
0018,
FFFC,
FFFD,
FFF6,
0000,
0002,
0004,
0001,
0004,
000B,
0007,
FFF1,
0004,
0001,
FFF6,
FFFC,
0008,
0001,
FFF6,
0004,
FFFB,
FFDF,
FFF8,
0025,
FFE2,
0007,
0005,
0001,
0011,
0014,
0007,
0004,
0017,
000C,
FFF0,
0005,
FFFE,
FFFE,
FFF0,
FFF2,
FFFC,
FFFA,
000B,
0001,
FFFB,
000E,
FFF7,
FFE8,
0011,
000A,
0000,
0012,
0005,
0001,
0001,
FFFC,
0012,
0008,
FFED,
FFF5,
0001,
FFFB,
FFFA,
0019,
0002,
0006,
000D,
0003,
000B,
0001,
001F,
0001,
0006,
0004,
FFF1,
0006,
0000,
FFE0,
FFFF,
FFF6,
0006,
0009,
0002,
0003,
000A,
0006,
FFE5,
0007,
0010,
FFFE,
000B,
000E,
000F,
FFFC,
FFF9,
0001,
0000,
FFF6,
000A,
FFFE,
FFF5,
FFF8,
0000,
000A,
0001,
FFFC,
001E,
000E,
FFFD,
FFF5,
0008,
000F,
0007,
0009,
000A,
FFF6,
000B,
FFF2,
0002,
FFC9,
FFFD,
000B,
000F,
000A,
001D,
000B,
0003,
0001,
FFF1,
0007,
FFF9,
0004,
0001,
FFF6,
FFF3,
FFEC,
FFFB,
FFFB,
FFFA,
FFFF,
0001,
FFFB,
0009,
0004,
FFEF,
FFF5,
0009,
0002,
0007,
001C,
FFFA,
000A,
0004,
FFDE,
FFFA,
0008,
0008,
FFF6,
000D,
000F,
FFF5,
FFFC,
000D,
FFFC,
FFFC,
0000,
0023,
FFF4,
FFE0,
FFFE,
FFF3,
FFF1,
0001,
FFE7,
FFF3,
000B,
0007,
0007,
0018,
FFFE,
FFE6,
FFFD,
0006,
0015,
FFF7,
0005,
0004,
0004,
0002,
000B,
FFFD,
0008,
0004,
0005,
FFF8,
000C,
000F,
0007,
0002,
0004,
0004,
0016,
0009,
0014,
0000,
FFF7,
0000,
FFF8,
FFF5,
FFFE,
000C,
FFF9,
0000,
0003,
000A,
0000,
0008,
FFFB,
FFFB,
0000,
0004,
FFE6,
0000,
FFFE,
0009,
FFFF,
FFFB,
FFFC,
000D,
FFF6,
FFF3,
FFFB,
0006,
0002,
0000,
FFEC,
000E,
FFF3,
000C,
0003,
FFFA,
000C,
0003,
0001,
FFFF,
FFF8,
0003,
FFEF,
0004,
FFF9,
000B,
0002,
FFF8,
0002,
0004,
000C,
0006,
FFFA,
0006,
0000,
FFE7,
0006,
0005,
0009,
0008,
000E,
0013,
0010,
FFFD,
FFFB,
FFE4,
FFF7,
FFF6,
FFFB,
FFFB,
FFE6,
000D,
FFFF,
FFED,
FFEC,
FFFA,
0003,
0019,
FFFD,
001D,
0004,
0004,
0004,
FFF8,
0007,
0002,
FFEF,
0007,
0009,
000A,
FFF1,
FFF5,
FFF2,
001E,
0005,
0003,
0000,
0001,
0013,
FFE8,
FFFF,
0010,
0008,
FFF2,
0000,
0001,
FFFA,
0006,
0005,
0004,
000B,
FFFB,
FFF1,
001F,
000C,
FFFE,
0008,
FFF9,
FFF6,
0017,
FFEC,
0004,
0001,
000C,
FFE2,
FFF6,
000D,
0003,
FFFD,
FFF4,
0001,
0004,
0005,
0009,
FFFD,
FFFF,
0002,
FFEA,
000A,
FFF8,
0008,
FFFA,
FFFC,
FFE7,
FFF7,
FFDC,
002A,
0005,
FFFE,
FFFE,
0007,
FFF8,
000C,
000B,
000C,
000E,
FFEF,
0003,
0000,
FFFC,
0001,
FFFC,
FFE3,
0008,
FFEF,
FFFC,
FFFB,
FFF6,
FFFA,
FFF9,
FFF9,
0001,
FFFC,
FFF9,
0003,
FFF7,
0008,
FFE6,
FFF8,
000F,
FFF0,
FFFF,
0000,
FFEA,
FFFF,
000B,
000A,
0008,
0006,
001E,
0005,
FFEC,
FFF6,
FFF0,
0005,
FFFB,
000C,
FFFD,
FFFA,
001D,
FFF6,
0019,
FFD1,
FFFD,
FFFF,
0008,
0006,
FFFC,
FFF2,
0000,
FFCB,
0007,
FFFD,
FFFD,
0014,
FFF9,
FFF9,
FFFC,
FFF7,
000E,
FFED,
0007,
0003,
FFE9,
000E,
FFFA,
FFFE,
FFF6,
0002,
FFF3,
0011,
0000,
0002,
0000,
0007,
FFFB,
FFF9,
0001,
FFFF,
0005,
000A,
FFF1,
000B,
0022,
FFF7,
0011,
FFFE,
FFFE,
FFEC,
0003,
0009,
0005,
0001,
FFFB,
FFFD,
0009,
0001,
FFF8,
FFFF,
FFF3,
0001,
FFE6,
FFFD,
FFF6,
0009,
000B,
0004,
FFE8,
0008,
FFFC,
FFF7,
0000,
001C,
000C,
FFF0,
0005,
FFF9,
0004,
0026,
0005,
FFF1,
FFFF,
000B,
FFFA,
000A,
0001,
FFFA,
0010,
0005,
0004,
0004,
0000,
FFFF,
0009,
FFF0,
FFF5,
FFFF,
FFF4,
0002,
000E,
FFEF,
000A,
FFFF,
FFFA,
000F,
0000,
FFF7,
FFFD,
FFFA,
FFF7,
FFF7,
FFF5,
FFF9,
0001,
FFFE,
0015,
0002,
0008,
0002,
0009,
0001,
FFE7,
FFF0,
0004,
FFF7,
0006,
FFFC,
FFFD,
FFFF,
0000,
0005,
0003,
0002,
0006,
FFFE,
0035,
FFFB,
0001,
0014,
FFED,
FFFF,
FFF8,
0008,
0006,
0003,
0013,
FFF8,
FFEE,
FFEC,
0006,
FFFA,
FFF8,
0015,
0014,
0013,
FFF4,
000B,
FFFC,
FFF9,
000F,
000D,
0006,
FFF1,
FFF8,
0006,
FFFF,
0005,
000A,
FFF7,
FFF7,
000B,
FFFA,
FFEA,
FFED,
FFF7,
FFFA,
0000,
FFF6,
0011,
FFF4,
0010,
FFED,
FFFB,
0008,
0001,
0017,
0001,
0000,
000A,
0014,
FFEE,
FFE7,
FFF7,
0000,
FFF5,
0009,
0006,
FFF1,
FFCE,
FFFA,
000E,
0014,
0000,
0004,
FFFC,
FFEE,
FFFF,
000A,
FFFD,
FFED,
0012,
0012,
FFF9,
FFF7,
0009,
0010,
0001,
0002,
0011,
FFF6,
FFF3,
0009,
FFFA,
0007,
000A,
0000,
0008,
0016,
FFF1,
FFFC,
FFFA,
000B,
FFFA,
FFFB,
FFF6,
FFFE,
FFF6,
0011,
FFFB,
FFFF,
FFEF,
0005,
FFFC,
000E,
FFFA,
0000,
FFF1,
0012,
0006,
FFFC,
0004,
FFF9,
0003,
FFF7,
FFF6,
FFFA,
FFF7,
001F,
FFFB,
FFF9,
000C,
0003,
FFFE,
0000,
FFF9,
0006,
0011,
FFF9,
FFFF,
0004,
FFFE,
0002,
000A,
0005,
FFF9,
FFF7,
FFF7,
000B,
FFFA,
FFEC,
FFEA,
FFF7,
FFF9,
FFF8,
000F,
0011,
0003,
0008,
FFE7,
0007,
FFFB,
FFF7,
FFF1,
000F,
FFEE,
000E,
0001,
0014,
0001,
0005,
0012,
FFFD,
0006,
FFF9,
0002,
FFFA,
0001,
0017,
000C,
0000,
0004,
0005,
000B,
FFFC,
0000,
0003,
FFEF,
0005,
000E,
0000,
FFFF,
FFF9,
0003,
FFFE,
FFE4,
FFF2,
000A,
FFF8,
FFFA,
000D,
FFFB,
0003,
FFFB,
FFFE,
FFFC,
000B,
FFFD,
0006,
FFFB,
000A,
FFE5,
0000,
000E,
FFF4,
0011,
0004,
0002,
0017,
0005,
FFFC,
FFFB,
000C,
FFFE,
0006,
FFFE,
FFF9,
0006,
FFF9,
FFF6,
FFFB,
0007,
0005,
FFFA,
FFFD,
FFFA,
0006,
0003,
FFFD,
FFFF,
0005,
FFF0,
0021,
0021,
FFFF,
0008,
0001,
0002,
000D,
FFFB,
FFFE,
0011,
0000,
FFFB,
FFFD,
FFF4,
0006,
0001,
FFF3,
0005,
000D,
000A,
FFEA,
0006,
FFE5,
0013,
0006,
FFFF,
FFFC,
FFE8,
FFF9,
FFFC,
FFFF,
FFEF,
FFEB,
0009,
FFF6,
0000,
0008,
0004,
0001,
0000,
001C,
FFFE,
FFE7,
FFEE,
FFF8,
FFFE,
0012,
0002,
0014,
000C,
FFFD,
FFF6,
FFFC,
000B,
0004,
FFE2,
FFF4,
FFF3,
FFFA,
FFF2,
0007,
FFFB,
0020,
000A,
000A,
000D,
0004,
0001,
FFFE,
FFFA,
FFFF,
0006,
FFFC,
0001,
0002,
0003,
FFFE,
FFF9,
0001,
0000,
000A,
0009,
0001,
0006,
FFFB,
FFF7,
FFFA,
0011,
FFFD,
0002,
0002,
FFF5,
FFF0,
FFF2,
0005,
0007,
FFEE,
FFF7,
FFFF,
FFEF,
0015,
FFF5,
000D,
000B,
000B,
FFF4,
0006,
0000,
FFF9,
FFFC,
FFFE,
0003,
0001,
0003,
0002,
FFF4,
FFFB,
0002,
0004,
FFF9,
FFF5,
FFFD,
0003,
FFFF,
FFF7,
0001,
FFF4,
FFF8,
0005,
0000,
FFFD,
FFE8,
000A,
0000,
FFF9,
FFFC,
FFF6,
0000,
FFED,
FFF9,
FFFC,
FFFD,
FFFA,
FFF6,
0012,
FFF4,
FFFB,
0004,
FFF1,
0010,
FFE6,
0000,
FFF5,
000F,
FFEC,
FFFE,
0002,
0007,
FFFC,
FFED,
0015,
FFF8,
0012,
FFFD,
001F,
FFF4,
FFF8,
FFFF,
FFEA,
FFFE,
000E,
FFF8,
000E,
0006,
0012,
0001,
FFFF,
FFF8,
000B,
0003,
000A,
FFDA,
FFF5,
000C,
0005,
0000,
FFFB,
0008,
0020,
FFF1,
FFFA,
0008,
FFF7,
000F,
FFEE,
0001,
0004,
0006,
0001,
000E,
FFFF,
FFFA,
FFFA,
0005,
000E,
0004,
FFFA,
FFFE,
FFF7,
000A,
FFF2,
FFFF,
FFF6,
0004,
0001,
FFF7,
FFDA,
000E,
0000,
0001,
FFFD,
0017,
0001,
FFF9,
000C,
FFFA,
0005,
FFFF,
0010,
0001,
FFEB,
FFF0,
000A,
0010,
0002,
000D,
FFF4,
0005,
000A,
0002,
FFFE,
0005,
FFF8,
0007,
0013,
0009,
0006,
FFFA,
FFFE,
FFFC,
0003,
0007,
0007,
0000,
FFFF,
FFFF,
FFF5,
FFF4,
0008,
FFEB,
FFFA,
FFDE,
0001,
FFFE,
FFF4,
0005,
FFEE,
FFF8,
0014,
FFF7,
FFF2,
FFFB,
0017,
000D,
000D,
FFFA,
FFDE,
0007,
0005,
FFFC,
0007,
0003,
FFF9,
FFF7,
FFEA,
0009,
FFF4,
FFF4,
FFF1,
FFF8,
FFF2,
0018,
000C,
0000,
FFF9,
FFF0,
FFF7,
FFF6,
0002,
0002,
FFFD,
FFFE,
FFF9,
FFFA,
0006,
0007,
0000,
FFEB,
000C,
FFFB,
0003,
0006,
FFF7,
FFFC,
0005,
000A,
0005,
FFEF,
FFF3,
FFF0,
FFF0,
FFF3,
0007,
0002,
FFF0,
FFFD,
FFFD,
FFEF,
0008,
FFFD,
000A,
FFFB,
FFF7,
FFF5,
FFF4,
FFFD,
FFFF,
FFFF,
0013,
0008,
0000,
0007,
FFFB,
FFFA,
FFEC,
0006,
0002,
FFFD,
0006,
FFFF,
FFFB,
FFF9,
FFEC,
FFF8,
0001,
FFFA,
FFF2,
FFFA,
FFEE,
0003,
000A,
0004,
0000,
0006,
000F,
0000,
0009,
FFF6,
FFF5,
000B,
FFFE,
FFFC,
0002,
FFFA,
FFED,
FFFD,
0008,
0010,
FFFC,
0008,
FFF5,
0001,
0014,
FFF7,
001A,
FFFE,
0000,
FFED,
000A,
0009,
0007,
FFED,
FFF1,
FFF7,
0000,
FFF2,
FFEA,
000A,
000D,
FFF6,
0002,
FFFC,
FFF5,
0009,
FFFB,
0009,
0006,
FFEF,
000B,
FFF8,
FFFA,
FFF5,
FFFA,
0007,
FFF6,
FFEC,
FFFD,
FFEB,
000B,
0005,
FFF8,
FFFC,
0002,
0002,
0004,
FFF7,
0002,
FFFC,
FFF5,
FFEF,
0000,
0014,
FFFB,
FFFD,
FFE4,
FFEF,
FFF1,
FFFC,
0010,
FFF3,
FFFB,
FFFA,
FFFA,
0006,
FFF5,
FFFA,
0005,
0001,
FFFD,
0002,
0009,
FFF5,
FFF9,
0009,
0011,
FFEF,
FFF2,
FFE5,
FFF4,
FFF8,
0004,
0002,
FFF8,
0009,
0008,
FFFD,
0002,
000F,
0020,
000D,
FFF7,
FFFC,
0006,
FFFE,
0008,
FFF6,
FFFF,
0007,
0002,
FFF2,
0002,
FFFD,
FFFC,
FFF2,
0008,
0004,
FFF6,
000B,
FFF7,
0004,
FFFC,
0013,
000F,
0003,
FFFF,
FFFC,
0002,
0006,
FFFA,
FFFA,
000B,
0013,
FFF9,
FFF7,
FFF4,
FFFF,
0003,
FFF8,
FFFB,
FFF9,
0004,
000B,
0007,
000B,
0006,
FFFE,
0007,
0005,
FFFF,
0002,
0003,
FFFE,
FFF8,
0024,
0002,
0008,
0004,
FFFE,
0007,
0006,
FFF3,
0004,
0016,
FFFB,
0000,
0005,
FFEC,
0007,
000D,
0001,
FFFF,
FFFF,
FFFB,
000D,
0011,
000D,
FFF8,
FFF0,
0002,
0005,
FFF9,
0001,
FFF9,
FFE9,
FFFB,
0007,
0001,
000F,
FFF4,
FFF5,
0007,
FFFC,
0016,
0000,
FFF6,
0021,
0000,
FFEA,
FFF3,
0003,
0000,
FFFD,
0004,
0012,
0009,
FFF8,
FFFC,
0011,
0006,
FFFE,
FFFB,
FFF7,
FFFC,
FFF6,
0019,
FFF7,
0012,
FFFF,
0006,
0003,
0003,
0005,
FFFB,
0002,
FFF7,
FFFE,
FFFD,
FFF8,
FFF4,
FFFC,
FFFE,
FFF0,
0000,
0003,
FFFA,
FFFB,
FFFB,
FFFC,
FFF6,
FFEE,
FFF7,
FFFD,
0019,
0009,
0011,
FFE8,
0010,
0008,
0007,
FFF7,
0003,
0000,
FFF1,
000E,
FFF2,
FFFB,
FFEC,
FFFD,
FFE4,
0001,
0004,
FFFE,
0004,
FFFE,
FFFE,
0006,
0001,
000F,
FFF4,
FFFC,
FFEE,
0006,
FFF0,
0001,
0002,
000A,
0005,
000C,
FFF3,
FFF2,
FFFA,
000B,
FFF8,
FFFD,
FFEF,
FFF4,
000F,
000D,
FFFE,
001C,
FFFC,
FFF7,
FFEC,
FFF8,
0007,
0006,
FFED,
FFFD,
FFFF,
000C,
FFFE,
FFFC,
FFED,
0000,
FFFE,
0006,
FFF6,
FFFE,
FFF8,
0003,
FFF5,
0005,
FFF1,
0003,
000A,
0002,
0011,
FFED,
FFF9,
0001,
FFF6,
0002,
FFEE,
0003,
0009,
0009,
0004,
FFFB,
0002,
0010,
0000,
0014,
0000,
0009,
FFFD,
0004,
FFE8,
0001,
FFF3,
FFFD,
0000,
0002,
FFFF,
0010,
FFF4,
000B,
0002,
FFFD,
FFFB,
FFFF,
000C,
FFFC,
FFFC,
FFFD,
FFFF,
FFF7,
FFEE,
FFFF,
0000,
0002,
FFF2,
FFE7,
000A,
FFED,
000A,
0002,
FFEC,
0019,
0005,
0004,
FFFF,
0010,
0000,
FFFF,
0014,
0007,
FFEF,
0008,
FFFE,
FFFF,
0003,
0008,
0003,
FFFE,
FFF3,
FFF6,
000A,
000A,
000B,
FFFD,
0007,
0004,
0007,
0008,
FFFC,
0017,
FFF9,
0006,
000A,
0003,
0000,
FFF1,
0008,
000A,
FFF9,
FFF1,
FFFD,
FFF8,
0000,
0004,
FFEF,
000B,
FFF7,
0000,
FFF5,
000A,
FFFD,
0002,
FFF7,
0005,
000C,
0000,
001B,
0004,
0006,
000E,
0003,
FFFA,
0006,
FFF2,
FFFA,
0013,
FFF4,
0004,
FFEE,
0003,
FFF8,
0012,
FFF2,
0005,
0003,
000A,
0002,
FFF8,
0005,
0008,
0004,
FFFE,
FFF6,
0006,
FFF8,
FFFF,
0000,
0005,
0004,
FFF4,
0017,
FFF2,
0018,
0000,
000B,
0002,
FFF5,
0008,
0003,
0009,
0002,
FFEC,
FFE8,
FFF3,
FFFB,
FFF6,
0004,
0006,
FFF8,
0003,
FFFA,
0002,
FFFB,
0001,
FFF8,
0014,
0002,
0001,
0009,
0008,
FFFA,
FFFA,
FFF6,
000B,
0005,
0002,
FFF8,
FFF4,
FFFA,
0001,
0007,
0006,
FFFC,
FFFD,
0003,
000F,
0009,
FFF0,
FFFB,
0005,
0002,
FFFB,
0001,
FFF6,
0007,
000A,
FFF9,
0000,
0002,
0005,
0004,
000A,
FFFC,
0008,
FFF1,
0003,
FFFA,
FFF3,
0003,
0002,
FFF8,
0001,
0000,
FFFA,
0006,
000A,
000A,
FFFF,
FFF0,
0009,
FFFD,
0009,
FFFA,
0013,
001A,
FFFA,
0000,
000C,
0004,
0003,
FFFC,
FFF5,
0003,
FFFB,
FFFA,
FFF1,
FFFE,
0001,
FFF4,
FFFD,
0000,
0006,
FFFF,
0007,
FFF7,
FFF6,
FFF1,
FFFF,
0002,
0005,
FFFE,
FFF5,
000B,
FFFC,
FFE8,
0000,
FFF8,
FFFE,
0001,
FFF6,
FFFA,
000E,
0002,
0007,
FFFA,
FFFC,
FFF8,
0010,
FFF8,
000C,
FFF8,
0009,
FFF8,
FFF2,
0003,
FFFD,
FFFD,
0009,
FFED,
0009,
0002,
FFF6,
FFF8,
0005,
0005,
000B,
FFF2,
0005,
0004,
000B,
0003,
0018,
0007,
0010,
0011,
FFFE,
0007,
0002,
0011,
0003,
0001,
FFFD,
FFFA,
0005,
000B,
FFF3,
000C,
000E,
FFFF,
FFED,
FFF7,
0004,
FFED,
000D,
0002,
0002,
000A,
0008,
0008,
FFF5,
0003,
000F,
FFF7,
FFF7,
0001,
FFFB,
0003,
FFEE,
0008,
FFF0,
FFFC,
0004,
FFF5,
FFEB,
FFF6,
000B,
0000,
000B,
0009,
0006,
0002,
0011,
FFE1,
FFF1,
000F,
000F,
0003,
0015,
FFFD,
0000,
0014,
0009,
FFFA,
FFF5,
0015,
0000,
FFFB,
FFF3,
FFF9,
0006,
FFF3,
0008,
FFF8,
0000,
FFF2,
0004,
0009,
0002,
FFFA,
FFF7,
FFFD,
FFF7,
0001,
0004,
0005,
0009,
000D,
FFF9,
0004,
000B,
0010,
0016,
FFFF,
0018,
000B,
0004,
FFF8,
FFFF,
0005,
FFF9,
0000,
000D,
0008,
0001,
0007,
0002,
FFE3,
0001,
0019,
0012,
0003,
0000,
FFF5,
0003,
FFF4,
FFFE,
FFE7,
FFF3,
FFE8,
FFED,
0000,
0001,
FFFC,
0006,
FFFD,
0009,
FFF2,
FFFD,
0008,
0009,
FFFD,
FFF8,
0003,
0010,
FFFD,
0002,
000B,
0008,
0006,
FFFC,
0001,
001A,
0011,
FFFE,
0000,
0015,
0006,
0009,
0002,
0006,
0001,
FFFD,
FFF9,
FFFF,
0006,
0001,
000A,
FFFD,
FFFB,
0012,
FFFC,
FFF9,
000D,
0006,
FFFB,
0009,
0011,
0001,
FFF3,
0016,
0009,
FFFF,
0002,
0007,
0003,
FFF4,
FFF8,
FFFB,
0005,
FFF0,
0005,
FFF7,
000B,
FFF6,
000A,
000C,
001F,
0005,
000C,
0006,
0001,
FFFB,
0004,
0007,
FFFA,
FFFB,
FFFF,
FFF4,
0004,
0004,
FFF8,
FFF8,
000A,
FFF4,
FFFF,
FFF4,
FFFE,
FFEE,
0001,
0004,
0006,
000F,
0002,
FFE8,
0008,
0001,
FFFF,
0002,
000D,
FFFA,
0007,
FFF8,
000D,
FFFC,
FFF3,
FFF8,
000D,
0001,
0008,
0000,
FFF6,
FFF8,
FFEA,
0002,
0008,
FFF6,
0014,
FFEF,
FFFA,
0011,
FFED,
FFF5,
0009,
0003,
FFFC,
0002,
FFE5,
0003,
0003,
FFFE,
0002,
0012,
FFFD,
FFF9,
0005,
0010,
000B,
FFFB,
FFF1,
0002,
FFFA,
000E,
FFED,
FFF9,
FFE7,
FFF9,
FFF2,
0019,
0000,
FFF4,
0011,
FFF3,
FFF2,
FFFD,
0002,
0001,
FFFC,
0003,
0006,
0005,
FFF6,
FFFE,
0005,
FFFF,
000F,
FFF6,
FFF8,
0002,
FFEC,
0008,
FFEF,
0003,
000D,
001A,
0006,
FFF2,
FFEB,
FFF9,
FFFF,
0002,
000F,
0004,
FFF9,
FFFF,
0004,
FFF2,
0004,
0000,
FFFC,
FFFF,
FFFB,
FFF4,
FFFF,
0007,
0005,
FFFA,
FFFF,
FFF9,
0008,
FFEF,
FFFE,
0005,
000E,
0006,
FFFC,
FFF8,
000A,
0009,
0009,
FFEE,
0000,
0005,
FFFC,
FFFA,
0006,
0008,
FFFD,
0008,
FFFE,
000A,
0001,
FFFD,
FFF6,
FFFA,
0006,
FFF6,
0004,
FFFB,
FFFF,
FFF9,
0003,
FFF3,
0001,
0005,
000C,
FFFC,
0008,
0000,
0004,
FFF9,
0000,
0004,
FFFF,
FFF6,
FFFA,
0006,
FFF7,
000F,
FFFF,
FFFB,
000E,
0007,
0000,
FFF1,
FFF3,
0022,
FFF9,
000B,
FFF1,
0004,
FFFE,
0000,
FFFD,
FFEF,
FFFF,
FFF5,
FFEC,
FFFB,
FFF6,
0010,
0012,
000A,
0004,
0011,
FFFA,
0002,
0008,
0008,
FFFA,
0001,
000C,
0003,
FFFC,
FFFB,
FFFD,
FFFC,
FFFD,
0012,
FFE9,
FFFA,
FFF2,
FFF5,
000C,
FFF4,
0003,
FFEC,
0007,
0012,
FFFF,
0007,
000B,
FFEF,
0007,
FFFB,
0007,
001A,
FFF4,
0008,
FFF8,
FFF6,
000E,
FFFB,
FFFE,
0017,
FFFB,
0008,
FFF2,
0004,
000A,
FFFE,
0001,
0003,
0011,
0007,
0003,
0001,
0007,
0008,
FFF4,
FFFC,
FFEF,
FFF7,
000F,
000A,
0006,
0015,
0014,
FFFD,
FFF3,
FFF4,
0007,
0005,
0007,
0008,
0019,
FFF3,
FFEB,
FFF2,
FFE7,
FFFA,
FFF6,
0005,
FFFE,
000F,
FFFE,
FFFA,
000B,
FFFA,
FFF9,
FFFE,
FFF9,
0005,
0017,
000B,
FFF6,
0008,
FFEE,
FFFA,
0004,
000E,
FFFC,
000A,
0005,
FFFB,
FFFA,
0002,
FFDC,
FFFF,
FFF7,
FFF1,
0006,
0008,
FFF7,
FFF8,
FFF8,
0004,
0011,
FFF7,
001E,
FFF7,
FFFB,
0008,
0004,
0007,
0006,
FFFA,
FFF3,
0005,
FFF4,
FFEF,
FFF7,
0004,
FFFB,
FFFC,
FFF8,
FFF1,
000A,
FFF5,
0011,
0003,
FFF3,
001B,
000F,
FFF3,
FFFF,
FFFD,
001D,
FFF2,
FFFC,
FFF6,
0005,
FFF2,
0000,
0006,
FFF3,
FFF9,
0001,
0004,
FFF8,
FFFF,
0007,
0000,
000A,
0006,
FFF0,
FFFC,
0004,
FFF7,
FFEE,
0003,
FFE3,
000D,
0006,
0001,
FFEE,
FFF8,
FFFE,
0004,
0003,
FFFC,
FFF6,
0001,
FFFB,
FFF3,
0005,
0004,
0016,
0000,
0006,
FFFA,
000E,
FFFD,
FFF6,
FFF8,
FFF4,
000B,
0000,
FFF4,
0011,
0002,
FFE7,
FFF4,
FFFC,
FFEF,
0004,
000A,
000A,
FFFD,
FFF6,
0000,
0014,
0000,
FFE9,
0002,
FFEF,
FFFC,
000A,
FFF5,
000A,
FFFA,
0010,
0008,
0002,
000A,
FFF9,
FFF6,
FFF4,
0010,
FFF2,
0003,
FFF6,
0004,
0010,
FFF8,
FFF3,
000E,
FFE0,
FFF7,
FFF0,
FFFD,
0009,
0006,
0004,
0005,
0005,
0001,
FFFD,
0003,
0008,
FFF5,
0000,
FFF7,
0012,
0002,
0007,
000D,
FFEC,
FFEE,
0002,
FFFA,
0007,
FFF5,
0000,
0006,
FFF6,
0006,
0012,
FFFB,
0006,
000D,
FFF7,
0003,
FFFD,
0005,
FFFE,
FFF8,
0007,
FFF8,
FFFE,
FFF4,
000A,
0017,
FFFD,
0017,
FFF9,
FFFF,
000C,
FFFB,
FFF7,
FFF7,
FFF7,
FFF5,
FFF9,
0000,
FFFA,
FFF5,
000B,
001A,
FFF4,
0003,
0018,
FFFE,
000A,
0003,
FFFF,
FFFF,
000B,
FFF3,
FFFF,
FFF9,
0000,
0010,
FFEC,
FFFA,
FFF3,
0004,
001E,
FFF2,
0005,
0008,
000B,
FFE5,
FFF8,
0007,
0008,
FFF7,
0005,
FFFB,
000F,
FFF4,
FFF4,
FFEC,
FFF8,
FFFE,
000A,
0000,
000F,
FFF7,
000B,
FFFF,
0001,
0004,
0006,
FFFC,
000E,
FFEE,
FFFE,
0000,
0005,
FFE4,
000A,
0005,
0001,
FFFD,
0013,
FFE8,
FFFE,
FFF3,
0002,
FFF2,
0008,
0003,
000D,
000D,
0000,
000C,
0000,
0017,
0001,
0001,
000F,
0000,
FFFA,
FFF4,
0003,
0005,
FFF2,
FFF5,
FFF6,
FFF4,
0004,
000D,
FFFE,
FFF6,
000D,
0009,
0004,
FFFB,
FFF5,
FFF6,
000E,
FFE1,
0011,
0011,
FFF7,
FFF8,
0009,
0003,
FFF5,
0013,
FFFF,
0009,
FFFE,
FFF4,
FFFA,
0000,
FFFB,
0002,
FFF0,
0011,
0007,
FFFD,
0000,
FFFF,
000A,
000D,
0004,
FFE8,
0012,
0008,
0010,
000A,
FFE9,
FFF2,
0004,
FFFD,
FFF9,
0005,
FFF8,
001C,
0012,
0005,
FFF9,
FFFC,
FFE7,
0005,
0009,
FFF8,
FFE6,
FFCB,
FFF4,
000C,
FFEE,
FFF9,
FFFA,
FFFB,
0005,
FFEE,
FFFD,
0005,
0009,
0004,
FFF6,
0018,
0004,
FFF5,
0010,
FFF7,
FFFD,
0007,
0003,
000D,
0002,
0004,
FFFB,
001A,
FFEA,
FFFB,
FFE4,
FFFB,
0013,
0008,
FFFC,
0013,
FFF0,
0000,
FFEC,
000A,
FFFD,
000E,
FFE1,
0003,
0007,
FFFA,
FFFF,
FFF8,
0001,
0008,
FFFB,
FFFD,
0002,
000A,
FFF9,
000B,
0004,
0008,
0009,
0008,
0006,
FFFF,
000A,
FFF1,
FFFD,
0005,
0001,
0007,
0005,
0005,
FFDE,
FFFB,
0011,
FFFC,
001E,
0023,
FFF9,
000A,
FFFE,
FFF9,
0003,
FFF8,
000D,
FFFB,
0007,
0012,
0013,
0000,
FFFB,
000E,
0003,
000E,
0004,
FFF7,
0007,
0000,
FFFA,
0010,
0008,
0009,
0003,
FFF3,
FFF5,
FFFB,
FFF9,
0002,
0017,
001E,
0006,
FFEE,
FFFB,
FFF2,
FFFB,
0000,
FFFB,
0009,
FFEC,
000B,
0001,
0001,
FFF8,
FFFC,
FFF3,
0008,
000D,
0007,
FFFD,
0001,
001A,
FFFC,
FFFD,
0014,
FFFB,
FFF9,
0006,
0006,
0009,
FFF7,
FFF8,
0010,
0000,
FFFD,
FFFD,
000E,
0007,
000C,
0010,
FFF8,
000C,
FFF0,
FFF6,
0010,
FFF9,
001B,
0004,
0001,
0009,
FFFD,
FFF5,
0003,
000B,
FFFF,
FFF8,
FFE3,
0001,
0012,
FFE6,
0004,
0005,
FFFC,
0003,
0003,
0012,
FFFC,
0008,
FFF3,
FFFF,
FFF1,
0007,
FFF5,
FFFD,
FFEE,
FFFF,
FFF4,
FFF7,
0000,
0008,
FFF6,
0008,
000D,
FFEB,
0018,
FFF8,
0003,
FFFA,
FFF3,
0006,
0005,
FFFE,
0002,
FFF6,
FFF6,
FFF7,
FFEA,
0007,
FFF3,
FFED,
FFDA,
FFF9,
0000,
0011,
FFFE,
000C,
FFF4,
FFFB,
FFF5,
0007,
0009,
FFEF,
FFF8,
0007,
0007,
FFFB,
FFFE,
FFE6,
0004,
FFFF,
FFFA,
FFEE,
0002,
0014,
000D,
FFDD,
0015,
FFFD,
0008,
FFF0,
0007,
FFF8,
FFFB,
FFF8,
FFFF,
FFF9,
FFF1,
0008,
FFFC,
0002,
0003,
FFF7,
FFFF,
0020,
0004,
FFFB,
0007,
0002,
FFF8,
FFEF,
0005,
FFF0,
FFF4,
0008,
FFFF,
0014,
0004,
0015,
0000,
0002,
FFFD,
FFFF,
0011,
FFFD,
FFFA,
0004,
0008,
0000,
FFF9,
0015,
0006,
FFFB,
FFF0,
0002,
FFFC,
000C,
FFF6,
000C,
0001,
0001,
FFFD,
FFF2,
FFFD,
FFFC,
0008,
FFFD,
0009,
0007,
FFFB,
0003,
0004,
FFF9,
FFFC,
0004,
0016,
0001,
FFED,
000A,
0006,
FFF1,
0005,
FFF3,
FFFD,
0011,
FFF5,
FFF8,
000C,
FFEF,
0000,
0000,
0003,
FFF5,
FFFC,
FFEE,
0004,
FFF6,
0001,
0005,
0011,
000D,
0004,
0005,
0017,
FFF3,
000B,
FFF6,
000D,
000F,
FFF8,
FFFD,
FFFA,
0006,
FFFA,
0004,
FFF8,
0005,
FFFE,
FFF3,
0005,
FFF3,
000F,
FFF2,
0002,
FFEB,
FFF5,
FFFB,
000D,
0004,
001F,
0006,
0001,
0003,
000C,
0014,
0001,
0006,
FFFC,
000A,
000E,
0003,
FFFD,
0008,
FFF7,
0008,
0000,
FFFB,
FFFE,
0001,
000E,
FFF4,
0000,
0004,
000D,
000D,
FFFA,
0016,
0006,
000B,
FFF9,
0000,
FFF6,
FFFE,
0000,
FFFE,
0002,
0017,
0007,
FFF9,
0011,
0009,
0008,
0003,
FFF9,
0002,
FFFD,
FFF9,
FFF4,
0008,
FFED,
FFE6,
000C,
FFF6,
0001,
0009,
FFF2,
0006,
FFEA,
FFFC,
000E,
0007,
FFFF,
FFF9,
FFFF,
FFE8,
0006,
0002,
FFF8,
0001,
000D,
0003,
0003,
001D,
FFE8,
0004,
0001,
0001,
0000,
000C,
FFFB,
0013,
FFFC,
FFFD,
FFF9,
FFF6,
FFFB,
FFF4,
FFFE,
0003,
0013,
0000,
0015,
FFFF,
0005,
0010,
FFF6,
FFF1,
0009,
000A,
FFFD,
0004,
FFF2,
FFFD,
FFEE,
0002,
0002,
0006,
000F,
0007,
0014,
0001,
FFFF,
0006,
FFFA,
000B,
000E,
0017,
FFF1,
0003,
FFF1,
FFFD,
0000,
0005,
FFFD,
0001,
0000,
FFFD,
0002,
FFF8,
FFF1,
FFED,
0009,
FFF8,
FFF2,
0011,
FFE6,
0008,
FFF9,
0004,
FFED,
0005,
FFF4,
FFF0,
FFF4,
0030,
0002,
0010,
FFFC,
FFFC,
FFEF,
0003,
0007,
FFFE,
0008,
FFF4,
FFE8,
FFFE,
FFEA,
0009,
FFE7,
0004,
FFF2,
0000,
FFF5,
FFF9,
FFF8,
0003,
FFF7,
FFE4,
0000,
FFFC,
FFEC,
0019,
000A,
0000,
0004,
0007,
0000,
FFFD,
0013,
FFF8,
FFFF,
0001,
0005,
0013,
FFFE,
000C,
FFF4,
0015,
0008,
FFFA,
0002,
FFED,
0002,
001C,
FFFA,
FFFF,
0004,
FFF6,
FFFC,
001F,
FFFA,
FFF6,
FFF6,
0000,
FFFA,
FFDA,
FFFB,
FFFD,
FFED,
0008,
0000,
000D,
FFFC,
0007,
0007,
000C,
0000,
FFEE,
FFFD,
FFEE,
FFFC,
000F,
0007,
FFFE,
FFF5,
FFF7,
0005,
0000,
000A,
FFFC,
FFF6,
0007,
FFF9,
FFFA,
FFFD,
FFEB,
000B,
000B,
FFF5,
FFFF,
0011,
0007,
0005,
FFF5,
FFF2,
0000,
0002,
FFF7,
000D,
0003,
FFFA,
FFF7,
FFEE,
0005,
FFFA,
FFFA,
0002,
000A,
000E,
FFFF,
FFE9,
0001,
0009,
0001,
0001,
FFF4,
0006,
FFF9,
0009,
0015,
0005,
0002,
FFFA,
0010,
FFF1,
0004,
FFFD,
000A,
0011,
0006,
001E,
000F,
0003,
FFFB,
FFF9,
FFF2,
0017,
0004,
001E,
FFFE,
FFFE,
0008,
0008,
0001,
FFF4,
FFFE,
FFFF,
000C,
0000,
000C,
0003,
FFF2,
FFFF,
FFFA,
FFF8,
0003,
FFFD,
000C,
FFF2,
0000,
0004,
0003,
0010,
0000,
000E,
0007,
FFF8,
0008,
0002,
FFF8,
0004,
0005,
0000,
FFF2,
FFFD,
000A,
0006,
000A,
FFFC,
FFF8,
FFFD,
FFF8,
FFF8,
0002,
0002,
FFF6,
FFFD,
FFFE,
0012,
FFF6,
FFEE,
0005,
FFFB,
0003,
FFEB,
0005,
FFFE,
0008,
FFFC,
001F,
000D,
FFF3,
FFFC,
FFFF,
0004,
0000,
0008,
FFFE,
FFF7,
0008,
0007,
000A,
0007,
0007,
FFEA,
000B,
FFFE,
0004,
FFF7,
FFFF,
000A,
0009,
0015,
0007,
FFFC,
0001,
FFE3,
FFFF,
FFED,
000F,
FFF9,
0009,
FFDB,
FFFA,
FFEC,
000A,
0007,
000D,
FFFF,
FFFC,
0002,
FFFF,
FFF6,
0000,
FFF8,
0000,
FFFD,
FFF3,
0007,
0006,
000B,
000B,
0016,
0003,
FFE9,
0004,
000A,
0005,
0009,
FFF7,
000B,
0004,
FFFC,
000D,
0004,
FFF2,
000D,
FFFD,
FFFF,
000D,
FFFD,
0009,
000C,
0019,
0002,
FFFA,
0022,
FFF9,
FFF7,
FFFE,
FFF6,
FFEF,
000A,
FFF6,
0006,
FFFB,
FFFC,
FFF5,
FFFD,
FFE7,
FFE9,
0001,
FFDE,
0004,
FFFE,
FFFC,
000A,
FFF4,
0001,
0018,
0002,
FFFD,
0000,
FFFE,
0006,
FFFD,
0011,
FFF1,
0012,
FFFF,
000B,
0007,
FFEF,
0001,
FFEC,
FFF8,
0003,
FFF9,
FFF9,
000F,
0004,
FFDC,
FFF7,
0007,
0001,
FFF8,
0001,
FFF7,
000B,
0008,
FFFB,
FFEE,
0009,
FFF4,
FFF1,
FFFD,
FFFE,
FFFA,
000A,
0005,
0007,
FFF1,
FFFB,
FFF9,
FFF2,
0011,
000D,
0001,
FFF6,
0004,
000B,
FFEC,
FFFD,
FFF5,
0000,
FFF6,
000B,
FFFD,
FFE0,
FFEF,
FFF8,
0006,
FFF9,
FFFA,
0004,
0016,
FFFE,
0018,
0001,
FFFD,
FFFB,
0009,
0008,
0006,
FFF0,
000A,
FFFE,
FFFB,
FFF0,
0016,
0001,
FFEA,
0014,
0002,
0000,
0007,
0000,
000B,
0009,
0020,
FFFA,
0003,
FFFE,
FFFC,
0000,
FFFC,
FFF3,
FFFF,
0013,
FFFC,
FFF1,
0004,
0002,
0004,
FFFF,
FFFB,
FFF6,
FFFA,
FFEB,
0009,
FFE9,
FFFC,
FFE0,
FFF1,
000F,
FFFE,
0003,
000B,
FFFD,
0003,
0013,
FFFB,
0009,
FFE7,
FFFA,
FFEF,
FFFE,
FFFD,
FFFF,
FFF6,
0004,
FFFF,
000A,
FFEF,
FFF2,
0002,
FFFE,
FFFC,
FFEC,
0001,
FFFB,
0011,
FFFB,
FFF9,
FFFD,
0011,
0001,
000A,
0003,
0000,
0006,
FFFC,
0001,
0000,
0004,
0001,
0018,
FFFB,
0001,
FFED,
0005,
000A,
FFFE,
FFF5,
FFF7,
FFFD,
FFF3,
0001,
0011,
0004,
FFF9,
FFEE,
FFF9,
0005,
0012,
0004,
0011,
FFFA,
0006,
FFF2,
000C,
FFF8,
FFF7,
0004,
FFFF,
FFF8,
FFFE,
FFFB,
FFF3,
0008,
000B,
FFEF,
FFFA,
0002,
FFE6,
FFFE,
FFF9,
000A,
0015,
FFFE,
0003,
FFF5,
FFFA,
000A,
FFF7,
0006,
FFFC,
FFFD,
FFFD,
000D,
FFFC,
FFFE,
FFFB,
0003,
FFF8,
000D,
FFEE,
0002,
0000,
FFF9,
FFFE,
FFFD,
0000,
FFFF,
0005,
000A,
0001,
0006,
FFFF,
FFFA,
0007,
FFFE,
FFF8,
FFFD,
FFF9,
FFFB,
FFF7,
0006,
FFF1,
0005,
000B,
FFFA,
FFF6,
000F,
FFF9,
FFF2,
FFFE,
0003,
0000,
0001,
FFFA,
FFF9,
0005,
0002,
0004,
FFFB,
0004,
FFF5,
FFFE,
0000,
FFF8,
FFFC,
FFF3,
0005,
0003,
FFFD,
FFFC,
FFFF,
FFFB,
0019,
0001,
FFFA,
0003,
FFE3,
FFFA,
FFFE,
FFE3,
0000,
FFF4,
0002,
FFFF,
0012,
FFF8,
000A,
0001,
0017,
FFFF,
FFFD,
0002,
0005,
0013,
FFFE,
FFFD,
0000,
0001,
0003,
FFEF,
0000,
FFFF,
FFF9,
0000,
0002,
FFFD,
0006,
FFFB,
FFFC,
0006,
FFEF,
0002,
FFF9,
0006,
0004,
FFE5,
000B,
FFF7,
FFFE,
FFFA,
0002,
FFFF,
0005,
0001,
FFF2,
0004,
0006,
FFF6,
FFFB,
FFF5,
FFF2,
FFFD,
0002,
FFFB,
000C,
0002,
0011,
FFFD,
FFFC,
FFF3,
0000,
0003,
0003,
0005,
FFF9,
0018,
FFFA,
0011,
0003,
0010,
000B,
FFF4,
0001,
0002,
FFF9,
0012,
FFF0,
0003,
FFF3,
0000,
0006,
0000,
FFFA,
0014,
0002,
0000,
FFF6,
FFF2,
0006,
FFFA,
0007,
FFEB,
FFF6,
FFF7,
0002,
0003,
0007,
001A,
0002,
FFFA,
FFE0,
000A,
0003,
FFF5,
0001,
FFFD,
FFFE,
FFF8,
0005,
0002,
FFE9,
0005,
FFF4,
0002,
FFF1,
FFFC,
0004,
0002,
FFFC,
FFFE,
FFF6,
0007,
FFFB,
0011,
FFF8,
0006,
0001,
FFFA,
FFF6,
0002,
0002,
FFFB,
0001,
0009,
0011,
0007,
FFFA,
FFFE,
0001,
0006,
FFF8,
FFF8,
0002,
0001,
001B,
0002,
FFFC,
0003,
0003,
0001,
FFFD,
000F,
FFF7,
FFFF,
0004,
FFFA,
0003,
0008,
FFFA,
0011,
0004,
FFFE,
0000,
0006,
0006,
FFF6,
0003,
FFF6,
FFFE,
0006,
FFFD,
000C,
FFFD,
000B,
000D,
FFF9,
FFEC,
000A,
0003,
0005,
0003,
0001,
0005,
0004,
FFEB,
000E,
0004,
FFFB,
FFF2,
FFF7,
FFFB,
0000,
FFFE,
0003,
0007,
000A,
FFF8,
FFFC,
0001,
FFF9,
0007,
FFFD,
0007,
000F,
FFFC,
FFE5,
FFF1,
FFFB,
FFF5,
0003,
FFF8,
0002,
0003,
0006,
FFF9,
0000,
0003,
0007,
FFF4,
FFEA,
FFFF,
0003,
FFFF,
0005,
0001,
0004,
FFFC,
FFEE,
0003,
FFF6,
000D,
FFEE,
000E,
FFFA,
FFF9,
FFF6,
0001,
0004,
0002,
FFF7,
FFFB,
FFFF,
0002,
FFF2,
FFF9,
FFFC,
FFFA,
000C,
0002,
FFF8,
0004,
FFFA,
0006,
0005,
FFF9,
FFF9,
0004,
0005,
FFFF,
000C,
FFFE,
0000,
000C,
0000,
FFFD,
0007,
FFE4,
FFF2,
0001,
FFFC,
FFFC,
FFF6,
FFFC,
000A,
FFFC,
FFEE,
FFFD,
FFF5,
FFF4,
FFFE,
FFFD,
FFFD,
000A,
0005,
0014,
FFF5,
0004,
0012,
FFF9,
FFFA,
0002,
FFFD,
FFE7,
FFF8,
0005,
FFF8,
FFF9,
FFF4,
0003,
001B,
FFEF,
000C,
FFF5,
0004,
0002,
FFF3,
0007,
000A,
FFF8,
FFF2,
0019,
0007,
FFFF,
0000,
FFE9,
FFFE,
FFFE,
0013,
FFF9,
FFFC,
FFF9,
0005,
FFF5,
0002,
FFF3,
FFE5,
FFF0,
FFFC,
FFF0,
FFFE,
FFFF,
FFFA,
FFF9,
FFF8,
0004,
0006,
000D,
FFFC,
0003,
FFFE,
0001,
FFF5,
FFF6,
0003,
FFF8,
FFFC,
0005,
FFF5,
0003,
0011,
FFEA,
0004,
0003,
FFFA,
FFF2,
0005,
FFFF,
FFFC,
FFFD,
FFF8,
0011,
FFFC,
0000,
FFEA,
0002,
0000,
0003,
FFFC,
FFF9,
FFFE,
FFFE,
FFF4,
FFE0,
FFFC,
0003,
FFFE,
000A,
FFF2,
0003,
FFFA,
0000,
0004,
0007,
FFF8,
0004,
FFF7,
0003,
FFFB,
001B,
0006,
FFF5,
FFFE,
0003,
0009,
0006,
FFFF,
0000,
000C,
000A,
FFF1,
0001,
0000,
0005,
0000,
0005,
000A,
0002,
FFF4,
000E,
FFF3,
FFF2,
FFFC,
0000,
FFFD,
FFEB,
FFFA,
FFFE,
FFEE,
FFF8,
0005,
000A,
0000,
FFF9,
0000,
0008,
0013,
FFFB,
FFFE,
FFE9,
FFFE,
000D,
0007,
FFFF,
0004,
FFFC,
FFF6,
FFFF,
FFFE,
FFFD,
FFFE,
FFF8,
FFF6,
FFF7,
0003,
FFF4,
0008,
FFF7,
FFEA,
FFF3,
000F,
FFFD,
0014,
0005,
FFFF,
FFED,
0002,
0003,
FFF7,
FFE8,
FFFE,
FFFC,
FFFA,
FFFB,
0001,
0001,
FFF6,
FFF7,
0018,
FFEA,
FFFB,
0007,
0004,
FFFC,
0000,
FFE4,
0001,
0007,
FFFC,
FFFA,
0004,
000E,
FFFF,
0007,
0021,
FFEB,
0003,
FFF8,
FFFF,
FFFF,
FFF4,
0003,
FFF9,
0008,
000D,
FFF3,
FFFC,
FFF3,
0000,
0015,
0008,
FFFF,
000D,
0009,
FFF4,
0005,
0027,
FFF8,
FFF8,
FFF4,
0002,
FFF1,
0001,
FFF1,
FFFD,
0001,
0001,
FFFE,
FFFE,
001E,
0003,
0006,
FFF6,
FFF5,
FFFB,
0006,
FFF9,
000C,
FFDD,
0007,
FFFD,
FFF6,
FFF7,
FFFF,
FFFB,
0000,
FFEC,
FFFF,
FFF3,
FFFF,
0001,
FFF7,
0008,
0002,
0009,
FFEB,
000F,
0007,
FFFA,
FFFA,
0007,
FFFF,
FFDF,
000B,
FFFD,
FFFF,
0005,
0002,
FFFD,
FFF2,
000A,
FFFD,
0000,
FFF5,
0006,
FFFB,
0006,
FFF0,
0005,
FFF4,
0001,
FFEE,
0000,
FFF1,
0012,
0019,
FFFB,
FFFC,
0015,
0001,
000E,
FFEF,
FFFC,
FFF1,
0007,
FFFF,
FFFB,
FFFD,
0002,
FFFB,
0004,
0002,
0002,
0004,
FFFE,
FFFE,
FFFE,
0009,
0007,
0007,
0010,
FFF4,
FFFD,
0008,
0006,
0005,
0007,
0004,
0009,
FFF2,
000B,
0017,
FFE8,
0009,
FFFB,
FFFE,
0002,
FFF8,
FFFD,
FFF2,
FFFE,
FFFD,
0005,
FFF3,
FFFC,
FFED,
FFFB,
FFFE,
0007,
FFFD,
FFFA,
0001,
0001,
FFFB,
0001,
FFF2,
000E,
FFF3,
0002,
000D,
0001,
FFFC,
FFEF,
0005,
FFFD,
FFF7,
FFF8,
FFF5,
FFF8,
FFF9,
0007,
FFEC,
FFF2,
FFEE,
FFF0,
0006,
FFFD,
0007,
FFFE,
000E,
FFF5,
0012,
FFFB,
FFFF,
FFFA,
000D,
FFF4,
0017,
0001,
001F,
0009,
0004,
0009,
0004,
FFFF,
0005,
FFF3,
001B,
0009,
0007,
FFFD,
000A,
FFFF,
0006,
FFFB,
0003,
FFF9,
000E,
FFFA,
FFF1,
FFE7,
0016,
FFFB,
0001,
0000,
FFF9,
000C,
FFEF,
FFFB,
0002,
FFF8,
0016,
FFFE,
FFF5,
0001,
FFFA,
FFF2,
FFFC,
000E,
FFF5,
0006,
000C,
FFFF,
000D,
FFFE,
0000,
0009,
0003,
0006,
0015,
FFF2,
0004,
000A,
FFF6,
FFF1,
000E,
FFF9,
FFEE,
0000,
0009,
0008,
FFFF,
0001,
0001,
0001,
0001,
0005,
0007,
0007,
FFF7,
0002,
000F,
0002,
FFF0,
0007,
0000,
0007,
FFF8,
0003,
FFFE,
FFFD,
FFFB,
0003,
0001,
FFF6,
FFF4,
000D,
FFEE,
0004,
000B,
0002,
0003,
FFF6,
FFF5,
0006,
FFED,
FFFF,
0002,
000F,
0015,
FFFD,
0003,
0000,
000F,
000C,
000D,
0000,
FFE9,
FFF8,
0010,
FFFD,
0007,
FFFF,
0003,
0005,
0009,
FFFA,
0004,
0001,
0001,
FFFF,
0002,
0010,
0005,
FFFE,
000B,
FFF5,
0013,
0003,
0006,
0002,
FFF3,
FFF6,
000D,
0004,
0006,
FFFA,
0001,
0009,
FFF9,
FFFE,
FFFE,
0003,
FFF6,
FFFE,
FFFC,
FFFA,
0016,
FFF1,
FFFF,
FFF8,
0006,
FFFD,
0005,
0003,
FFF8,
0014,
0006,
FFEE,
000B,
0002,
FFEE,
FFFD,
0008,
FFF8,
0002,
0004,
FFFE,
0009,
000B,
FFF6,
0004,
0014,
0004,
FFF4,
0004,
0005,
0001,
0009,
FFF5,
0000,
FFF5,
FFFE,
FFF9,
FFFA,
FFFA,
FFFB,
FFF6,
000C,
FFFE,
0005,
FFFE,
0002,
0011,
000A,
FFFF,
FFFA,
0009,
FFFE,
FFFA,
0003,
0002,
FFE2,
000A,
000F,
0006,
0009,
FFF4,
FFF7,
FFFF,
FFF1,
000C,
FFFA,
FFF1,
FFF2,
000D,
0018,
FFF6,
FFF6,
0007,
FFFC,
0010,
000D,
FFFB,
0008,
FFF4,
FFFE,
FFFB,
FFFE,
FFF6,
FFFD,
0013,
0000,
0001,
0005,
0004,
FFF4,
FFFB,
0004,
0004,
0012,
0001,
0009,
000D,
FFEE,
0000,
000A,
0004,
000B,
FFF9,
FFFD,
FFFF,
0004,
FFF2,
FFF3,
FFFA,
0009,
FFF8,
FFF7,
000B,
FFF9,
FFFB,
FFF2,
FFF3,
FFF0,
0002,
FFF6,
0004,
0003,
0004,
0004,
000E,
0004,
FFF4,
FFFE,
0007,
FFFA,
000D,
FFFA,
FFFD,
000A,
000E,
0006,
0005,
0006,
0008,
0002,
FFF0,
0000,
0009,
0002,
FFF6,
0000,
FFFB,
0005,
FFFC,
0003,
0009,
0003,
0004,
FFFD,
FFFD,
0005,
000E,
0008,
FFED,
FFFC,
FFFF,
0002,
FFF7,
000B,
0000,
0003,
0004,
0019,
FFF9,
0005,
FFF5,
FFFC,
000A,
0004,
0003,
FFFF,
FFF7,
0001,
FFF3,
FFF8,
000D,
FFFB,
FFFC,
0005,
FFF2,
0000,
0013,
0013,
FFF3,
0000,
000F,
FFFD,
FFF8,
0002,
FFFF,
0011,
0002,
FFFE,
0003,
FFFD,
0000,
0009,
0014,
0001,
0000,
000C,
FFF6,
0007,
0004,
0005,
FFFC,
FFFC,
000A,
FFF8,
FFEC,
FFFF,
0006,
000F,
FFFC,
FFF7,
0010,
FFF5,
FFF8,
FFF6,
0004,
FFF7,
000B,
0004,
FFF2,
FFF5,
FFED,
0012,
0000,
FFFD,
FFF9,
0000,
FFFC,
0000,
0002,
FFF1,
FFF7,
FFFA,
FFFD,
FFF7,
0009,
FFFD,
000E,
000B,
FFFF,
0008,
FFFC,
000F,
FFFB,
0005,
FFFC,
000D,
FFF3,
FFFC,
000C,
FFF2,
0009,
0000,
FFFD,
0006,
000A,
FFFC,
FFF8,
0010,
0001,
000F,
FFF6,
FFFA,
0009,
FFFF,
000D,
FFFE,
0003,
FFF3,
0009,
000C,
FFF8,
0002,
FFFE,
0001,
0000,
FFFA,
0001,
000B,
0005,
0000,
FFF9,
FFFD,
FFF1,
FFFB,
FFF5,
001D,
0002,
FFF8,
FFFD,
FFFE,
FFF7,
FFFC,
FFF8,
FFF9,
0004,
FFF6,
FFFB,
FFFE,
FFF8,
0009,
FFFB,
FFF7,
FFFF,
0004,
0011,
0005,
FFFE,
0009,
FFFF,
FFF3,
FFF3,
0006,
0006,
0004,
0004,
0002,
000C,
FFFE,
0010,
0004,
FFF4,
FFF7,
0008,
0002,
0003,
0012,
FFFE,
000C,
FFF3,
0001,
FFFE,
FFFD,
0005,
0001,
0005,
0002,
FFFC,
0001,
FFFB,
FFFA,
0000,
FFFB,
FFFD,
000A,
FFF4,
FFFE,
FFF1,
000C,
FFE9,
FFF8,
000E,
FFFC,
FFF7,
FFFE,
FFF9,
FFF8,
FFFA,
0007,
FFEE,
FFFF,
FFFA,
FFF6,
0000,
0003,
0005,
FFF9,
0007,
0004,
FFFC,
FFFD,
FFF9,
000A,
0000,
0006,
0005,
0003,
0011,
FFFD,
FFF8,
0001,
FFFD,
0007,
0004,
FFE8,
0008,
FFF3,
FFF3,
0002,
FFFE,
0005,
FFFC,
0002,
001A,
000A,
FFF8,
001E,
0007,
FFF5,
0004,
0003,
0002,
0002,
0000,
0009,
0006,
FFF5,
FFF2,
FFF6,
0001,
FFF9,
FFF6,
FFFF,
FFF6,
0000,
000B,
FFF9,
FFFE,
FFF9,
FFFF,
FFFF,
FFFB,
FFF5,
FFFB,
FFF7,
0015,
001C,
FFF5,
000D,
0003,
FFF6,
0008,
0003,
0006,
000C,
000D,
FFFB,
0000,
FFFA,
0005,
FFFB,
0018,
FFFA,
0009,
FFF9,
0000,
0006,
0008,
0004,
FFFD,
0009,
0015,
000E,
0007,
FFFE,
FFFF,
0015,
0003,
0007,
0009,
0002,
0004,
FFF4,
FFEE,
0006,
FFFC,
FFFA,
0000,
000C,
0001,
FFEA,
FFF6,
000C,
0005,
0000,
FFFF,
FFF0,
FFFB,
000E,
0010,
0000,
0012,
FFF7,
FFFE,
FFE4,
FFF3,
FFEB,
0009,
FFFC,
FFF8,
FFF3,
FFF8,
0004,
FFF5,
0009,
0006,
0019,
0005,
FFFC,
0002,
001A,
0006,
FFFA,
0008,
000B,
FFF8,
0003,
FFF6,
FFFF,
0001,
0003,
FFF4,
0005,
FFEA,
FFFD,
FFFF,
FFF8,
FFFE,
FFFB,
FFFA,
0009,
000B,
0002,
FFF1,
000F,
FFF2,
FFFD,
FFFE,
FFFD,
0000,
0016,
FFFC,
0001,
0015,
0000,
FFFC,
0006,
0001,
0005,
FFFF,
FFF6,
0005,
0001,
FFF6,
0005,
000B,
FFF5,
000B,
FFEC,
0002,
0008,
FFFB,
0001,
FFEC,
0008,
000B,
FFFC,
000E,
000C,
FFFD,
FFF7,
000F,
0008,
FFF4,
FFFA,
0004,
FFFB,
0002,
FFFC,
FFFA,
0017,
FFFE,
0007,
FFFD,
FFF8,
FFFF,
000B,
000B,
0005,
0010,
FFFF,
000B,
0011,
FFFA,
FFF4,
FFFF,
0003,
FFFF,
FFFF,
0006,
FFEC,
0005,
0008,
0001,
000F,
0003,
FFFB,
000E,
FFF3,
0002,
0007,
0004,
FFF2,
FFF9,
FFEF,
FFFD,
0002,
FFFD,
0006,
0003,
000E,
0005,
0007,
0009,
FFF6,
0001,
0001,
FFFF,
0000,
0006,
000B,
0005,
0000,
0001,
FFF2,
0009,
FFF9,
0001,
FFED,
0009,
0006,
0000,
0002,
0003,
0003,
0004,
0002,
FFFF,
0008,
000D,
0002,
0005,
FFFE,
FFF3,
FFFB,
FFF9,
FFE4,
FFF9,
FFF5,
FFFF,
FFFB,
FFFD,
0000,
0001,
0010,
0008,
FFF1,
FFED,
FFFC,
FFFB,
0000,
0009,
FFFC,
0004,
0003,
000E,
FFF8,
FFF6,
0007,
0007,
000B,
0008,
FFEA,
FFFF,
FFF5,
0003,
0000,
0013,
FFFE,
FFFF,
FFF3,
FFF5,
FFF2,
000E,
FFF9,
FFFD,
000A,
0005,
FFF2,
FFED,
FFF6,
0003,
0005,
FFF8,
0000,
0009,
0003,
0001,
0000,
FFF7,
FFFC,
0009,
000B,
0000,
FFFF,
FFF7,
0006,
0003,
0005,
FFF2,
FFF9,
0009,
FFF7,
0005,
0003,
FFFD,
0006,
FFF4,
FFFA,
0012,
FFFC,
0006,
FFF4,
0005,
0003,
000C,
0003,
FFF5,
0006,
000F,
FFFA,
FFFF,
000B,
FFFA,
0016,
FFFB,
FFFB,
FFEB,
000E,
000B,
0002,
FFF5,
FFFA,
FFFE,
0002,
0002,
000C,
FFF0,
FFF4,
0004,
0007,
000F,
0008,
FFFE,
0009,
0002,
0001,
FFFD,
FFF8,
FFFC,
000B,
000B,
0004,
000F,
0004,
0005,
000D,
0005,
0013,
0001,
0003,
FFFF,
FFF5,
FFF9,
FFEB,
0006,
0003,
FFFC,
FFFA,
0008,
FFF1,
000D,
FFFF,
FFFA,
FFFC,
0003,
0009,
0010,
000F,
0004,
FFFF,
FFF1,
0010,
FFFB,
0010,
0004,
FFF3,
0004,
0008,
0017,
000A,
0000,
0006,
000D,
0008,
000E,
0001,
FFFC,
000C,
FFEC,
FFFC,
000E,
0007,
FFF2,
FFF4,
0015,
0006,
FFF3,
0000,
FFFA,
FFFC,
0003,
0002,
000C,
FFFB,
0028,
0016,
0002,
000A,
0012,
FFFD,
FFE5,
0000,
FFFD,
0000,
FFFE,
FFF0,
FFF3,
FFFF,
000F,
FFED,
FFFA,
FFFB,
000E,
0004,
0003,
FFF9,
FFFE,
0007,
0008,
FFEA,
FFF0,
FFF7,
0003,
FFF8,
0006,
FFF1,
FFF1,
0014,
0007,
0012,
0000,
0002,
FFF9,
FFEE,
0002,
0011,
0006,
000F,
0019,
0006,
FFF2,
FFEB,
0005,
FFFD,
000E,
0002,
0003,
FFFC,
0006,
FFFC,
0011,
FFFB,
0003,
FFFB,
FFF7,
FFFC,
0009,
FFF7,
FFFD,
0005,
000A,
0003,
0001,
FFFA,
000E,
0002,
0014,
0007,
0009,
FFFC,
FFFA,
0001,
0003,
FFFB,
FFF5,
FFF5,
FFFD,
FFEE,
0009,
000C,
FFF0,
FFF5,
FFF7,
FFFE,
FFE3,
FFF1,
FFDA,
0002,
FFF1,
FFF6,
0008,
FFFE,
FFFB,
000C,
000E,
000B,
FFF6,
FFF1,
0011,
FFFC,
000D,
0007,
FFE8,
0012,
FFF1,
0003,
0006,
FFF9,
FFF9,
FFF1,
0015,
0015,
FFF5,
FFF9,
FFFB,
000D,
0002,
0001,
0006,
FFF8,
0007,
0001,
0003,
0000,
FFFF,
FFF5,
FFE9,
0003,
0004,
0004,
FFF3,
FFFF,
FFFF,
0024,
0000,
FFFD,
FFF0,
001F,
0006,
0007,
000F,
FFFE,
FFF9,
FFF9,
FFF5,
0005,
0005,
FFFA,
FFEC,
FFF4,
FFFC,
FFF3,
0016,
FFFC,
FFF6,
000C,
FFF3,
000D,
0006,
0003,
FFF8,
0005,
0009,
0001,
FFF6,
0003,
0000,
0001,
FFF7,
0000,
0014,
FFFD,
000A,
FFF6,
0009,
0012,
FFE9,
FFF8,
FFF8,
0003,
0003,
0002,
0005,
0001,
FFEE,
000A,
FFFE,
0006,
FFFA,
FFF2,
FFFC,
0007,
0004,
FFF8,
FFFE,
FFFC,
0018,
000D,
000C,
FFFA,
FFFF,
FFEA,
000D,
FFF5,
0000,
FFF8,
0003,
0000,
0006,
FFFC,
FFF8,
FFFF,
0009,
0006,
0005,
FFF6,
0001,
000C,
FFF1,
FFFB,
000B,
FFF0,
FFFE,
0011,
FFF4,
000F,
FFF2,
001A,
0000,
FFFA,
FFF6,
FFFE,
0004,
FFFB,
0006,
0005,
0009,
FFEF,
000A,
0016,
FFF9,
000F,
000B,
0005,
0004,
FFF3,
0009,
0004,
FFF4,
0004,
FFE9,
000E,
0002,
0019,
000D,
0011,
0001,
FFF9,
0002,
FFF9,
0005,
0008,
0004,
FFF4,
FFFF,
000C,
000C,
FFF4,
FFEC,
0015,
000B,
000A,
FFF9,
FFF5,
0008,
0002,
0001,
FFF4,
0011,
FFFD,
0000,
FFEF,
FFF1,
FFFA,
0001,
000A,
000F,
0004,
0004,
0000,
FFF9,
FFF8,
0002,
FFFC,
0006,
FFF4,
FFFA,
FFF1,
FFF7,
FFFD,
FFF9,
0006,
FFF6,
FFFC,
FFF0,
0003,
0001,
0001,
0008,
000F,
0007,
0008,
FFF8,
0005,
0009,
FFFF,
FFEB,
0000,
FFF6,
000B,
0007,
0006,
FFFE,
FFFB,
FFEB,
FFEA,
FFF5,
FFE8,
FFF2,
0003,
0004,
0002,
000B,
0005,
0003,
0007,
000B,
FFF3,
0007,
000A,
FFF8,
FFFC,
0006,
FFF6,
FFE9,
FFF3,
FFFD,
0003,
0002,
FFFF,
FFFB,
0011,
FFF9,
FFF4,
FFF9,
000B,
0001,
FFF1,
FFF0,
0006,
000A,
FFFF,
FFEA,
FFFB,
0008,
FFFC,
FFFB,
FFFF,
FFFD,
0002,
FFFF,
0009,
0004,
FFF6,
0011,
FFF4,
0004,
0008,
0010,
FFE9,
000C,
FFFC,
0009,
FFFE,
FFF6,
000B,
FFFF,
000C,
FFED,
FFFD,
0017,
0011,
FFF5,
0011,
FFFC,
FFEE,
0008,
FFFA,
000B,
FFFC,
FFF4,
FFF9,
FFFD,
FFF3,
FFEE,
0005,
FFFC,
FFF0,
FFFA,
0001,
FFF6,
0010,
FFF4,
000E,
0007,
000E,
0002,
0004,
FFFF,
FFF1,
0010,
FFFF,
FFFC,
000F,
FFFB,
0009,
0006,
000A,
FFF6,
0005,
0004,
000F,
000C,
FFF7,
FFEE,
000F,
FFF4,
000A,
FFFF,
FFFB,
0003,
000D,
0003,
FFF4,
000A,
FFF8,
0008,
0001,
FFE8,
FFF0,
FFF0,
FFFB,
FFFE,
FFFF,
0003,
FFF9,
FFFA,
FFF1,
FFFB,
0017,
000B,
FFF7,
0000,
FFFA,
0001,
FFF8,
FFF7,
000D,
000B,
FFF6,
FFF2,
FFF5,
FFF2,
FFEF,
000B,
FFFE,
0003,
000D,
0007,
0004,
0009,
0001,
FFF8,
0005,
FFFE,
FFFD,
FFFF,
FFFF,
FFF3,
FFF6,
FFF2,
000B,
0015,
FFEC,
FFFB,
FFF7,
000C,
FFFB,
000C,
FFFA,
0005,
0009,
FFFC,
FFEE,
0007,
FFF5,
000A,
FFFB,
000E,
0011,
FFF9,
0005,
FFFC,
0008,
FFFE,
FFF9,
FFFD,
0001,
0000,
FFFA,
0005,
FFEC,
0007,
FFF5,
0008,
0008,
000F,
0002,
FFFB,
000C,
FFF8,
FFEA,
0014,
FFFE,
000B,
0005,
0005,
FFFB,
FFFF,
FFF6,
FFFA,
0003,
000B,
FFFE,
FFFB,
FFF5,
0006,
0008,
FFF1,
0009,
0005,
FFF9,
FFF3,
FFF4,
0002,
FFF8,
FFF4,
0013,
000C,
0006,
0000,
0000,
FFF5,
0004,
FFFC,
0006,
FFFF,
FFF6,
001A,
0001,
000F,
FFEE,
FFF6,
FFF9,
0001,
0006,
0017,
FFF9,
FFFB,
FFFF,
0004,
FFEC,
0006,
FFF8,
FFFB,
0007,
000A,
FFF4,
0007,
FFF6,
FFFE,
000E,
000C,
0003,
FFF4,
FFF4,
0028,
FFF1,
FFFE,
000C,
0002,
FFFE,
FFF6,
0002,
0006,
0004,
000F,
0004,
FFEE,
0005,
FFDA,
0015,
0000,
FFF7,
FFFB,
0003,
FFFA,
FFF0,
FFFB,
0018,
0001,
0006,
0002,
FFF5,
0001,
FFFB,
FFEF,
FFF1,
FFFA,
000E,
FFF5,
0000,
FFF4,
0002,
0003,
0007,
000E,
0013,
0005,
FFEA,
000B,
FFF9,
FFF9,
0007,
0017,
FFE1,
FFF6,
0002,
0009,
000C,
FFFE,
FFE8,
FFEE,
0003,
FFFB,
000C,
FFFB,
000D,
0002,
FFEF,
FFE3,
FFF8,
0015,
FFF9,
000F,
0005,
0009,
000E,
FFF7,
0009,
0002,
FFFA,
FFF9,
0000,
0008,
FFFE,
FFF3,
000D,
FFFB,
000A,
FFE3,
0005,
FFF6,
FFF3,
FFFE,
0006,
FFE9,
000A,
FFF0,
0001,
FFEC,
000D,
FFFE,
0003,
FFFA,
000C,
0002,
FFF4,
FFF6,
FFFF,
FFFC,
0016,
FFFF,
000C,
0004,
0002,
FFF1,
0000,
FFEB,
0027,
FFEF,
0017,
FFF3,
0002,
FFF2,
FFE8,
001B,
FFFD,
0011,
0009,
001B,
0013,
0002,
FFF9,
0002,
FFFF,
0012,
FFFF,
0006,
000B,
FFFF,
0005,
FFFC,
000B,
000B,
0004,
0008,
FFF6,
0000,
FFFC,
000E,
0013,
000A,
0005,
0000,
001E,
0005,
FFFA,
0001,
FFFF,
0014,
0012,
FFFB,
FFFC,
FFFD,
0006,
FFEF,
FFF2,
000D,
FFEB,
0005,
FFFE,
0008,
FFFD,
FFF8,
000A,
000F,
FFF2,
FFFD,
0011,
FFF4,
FFFB,
FFE3,
0009,
FFF9,
FFEB,
0007,
FFF4,
FFFB,
001D,
0011,
0003,
FFF0,
0008,
FFF0,
FFFF,
FFFF,
FFFC,
FFF2,
0002,
FFFA,
0004,
FFFD,
FFFD,
FFFC,
0011,
FFFD,
0008,
FFFC,
FFF8,
0015,
FFE9,
FFE5,
FFF4,
0000,
FFFF,
0008,
FFFF,
0003,
0005,
FFFD,
0004,
000B,
FFFF,
FFF8,
0010,
FFFB,
FFF6,
0002,
000A,
000A,
0003,
0009,
FFF7,
FFFC,
FFFE,
0007,
FFE8,
0003,
FFF0,
FFF9,
000B,
FFF2,
FFF4,
FFE2,
FFFA,
0000,
FFFE,
0009,
FFF5,
000A,
FFFA,
0000,
0007,
FFF5,
000B,
FFFC,
FFF5,
FFE7,
0015,
FFF2,
FFFF,
FFF1,
0006,
0007,
FFEF,
0021,
FFFE,
FFFC,
FFF7,
0003,
FFFF,
FFFE,
FFF2,
FFFC,
0000,
0008,
FFF3,
FFFF,
FFF7,
0004,
FFE9,
0007,
FFFC,
FFF1,
0003,
0000,
0003,
0018,
0003,
001F,
0002,
0008,
FFF5,
FFF6,
FFF3,
FFFB,
FFE2,
FFFD,
FFF8,
0013,
0010,
000A,
0005,
0009,
0002,
FFF9,
000C,
FFFF,
FFF7,
FFF2,
FFF1,
0007,
FFF3,
0022,
0014,
0003,
0005,
FFFF,
FFF9,
0001,
0002,
FFF5,
FFFB,
0004,
FFE4,
0002,
FFF0,
FFFC,
0000,
FFF2,
FFF3,
0002,
FFF9,
FFFB,
0009,
FFF7,
0006,
FFFE,
FFF1,
000C,
000C,
000A,
FFFE,
FFFF,
FFF7,
0003,
0004,
000F,
FFFD,
0001,
0009,
0012,
FFF4,
0007,
FFFE,
FFF7,
0006,
0000,
0009,
FFEF,
FFFC,
FFF9,
FFF4,
FFFF,
000F,
FFFE,
FFFD,
FFFB,
FFF5,
FFF5,
FFF1,
0015,
0010,
0006,
0006,
0001,
FFFF,
FFFA,
0013,
FFF7,
0003,
0004,
0012,
FFF9,
0004,
FFF6,
FFFC,
FFF4,
0001,
FFF3,
0004,
000A,
0013,
FFF5,
FFF8,
0010,
FFFE,
FFFA,
FFFA,
0003,
FFFF,
0021,
FFF5,
FFF2,
FFDA,
FFEB,
FFFE,
FFF5,
0006,
FFFF,
0004,
FFF0,
FFF9,
FFF8,
0004,
FFFF,
0011,
FFFC,
FFFA,
0000,
FFEA,
0002,
0023,
0012,
0000,
FFFF,
FFF2,
0001,
0018,
0008,
000A,
0004,
0001,
000F,
FFEF,
0011,
FFEA,
0002,
000A,
FFF6,
0003,
0010,
0004,
000D,
FFF6,
FFED,
000A,
FFFD,
0003,
0015,
0003,
0007,
000B,
FFFB,
0013,
000B,
FFFC,
FFE9,
FFFD,
000A,
FFEF,
FFF8,
FFFD,
FFF6,
0003,
FFFB,
FFFC,
0017,
FFF0,
FFFC,
FFF2,
FFEE,
0006,
FFF7,
0006,
0005,
FFFA,
FFFE,
0007,
FFFB,
FFFB,
FFFB,
0004,
FFFB,
0002,
0009,
0003,
0006,
FFFE,
0011,
000B,
FFF8,
FFFB,
0018,
FFFE,
FFFD,
0006,
0004,
FFFE,
FFFC,
FFF9,
FFF2,
0012,
000C,
0001,
000A,
0006,
FFF5,
0004,
0007,
FFFA,
0015,
0006,
FFFD,
FFFF,
0010,
FFF3,
FFFA,
0005,
FFFD,
FFF3,
FFF8,
FFFF,
0003,
FFF1,
0002,
FFFC,
FFFF,
000F,
FFFF,
FFFD,
FFF2,
FFF9,
FFF8,
0010,
0005,
FFFB,
FFEC,
FFFD,
FFF7,
FFFF,
0002,
0017,
FFF0,
0009,
000F,
FFFA,
FFFA,
0002,
0000,
001E,
0013,
0005,
FFF5,
0002,
FFF3,
FFF3,
FFFD,
0003,
0013,
0000,
FFF5,
FFEF,
FFFD,
0005,
0008,
0003,
FFF2,
FFFB,
FFF9,
FFEF,
0003,
FFFE,
0007,
FFFA,
FFFB,
FFF1,
000A,
0008,
0007,
FFFB,
000B,
FFFC,
0018,
0001,
0003,
FFFD,
0003,
000A,
0018,
0012,
000C,
0000,
FFF9,
0012,
FFF8,
FFFD,
FFF9,
FFFE,
FFEA,
000F,
0001,
000D,
001B,
FFFF,
0003,
0002,
FFF9,
0002,
0005,
0001,
FFFF,
0009,
FFFF,
0003,
0008,
FFF9,
000E,
0001,
FFFE,
FFFC,
FFED,
FFFB,
0004,
0000,
FFFF,
0010,
0010,
0006,
0000,
FFFE,
FFE6,
0003,
0006,
0000,
FFFC,
0006,
000F,
FFFB,
000D,
0001,
FFF5,
FFFD,
0011,
000F,
FFFF,
0011,
0005,
FFE0,
FFF1,
FFFC,
0008,
FFF9,
FFEB,
0010,
0009,
0007,
0007,
FFF8,
FFFD,
FFFF,
FFE5,
FFF8,
FFF6,
FFF7,
0010,
0005,
0009,
0011,
000B,
0005,
0002,
000C,
FFFC,
FFDF,
0005,
FFFE,
0001,
FFFE,
0006,
FFFE,
0009,
000B,
FFFE,
0008,
000A,
FFFD,
0000,
0004,
FFFD,
0009,
FFFA,
FFFD,
0002,
FFF6,
FFF5,
FFF2,
000F,
0008,
0005,
0005,
FFFA,
0001,
FFFE,
FFFA,
FFF9,
FFF8,
FFF5,
FFFD,
0005,
FFDF,
FFFD,
0009,
0000,
FFFD,
FFF7,
FFFF,
FFF9,
000F,
FFF3,
0002,
FFE1,
0002,
0008,
0008,
0005,
FFF6,
0004,
FFF1,
FFF8,
0005,
0003,
000F,
0014,
0003,
FFEE,
0003,
FFF5,
000D,
FFF4,
0009,
0005,
FFEF,
0004,
0014,
000C,
0002,
000A,
0011,
FFFC,
FFF3,
0011,
FFF3,
FFF5,
0005,
000D,
FFF4,
0001,
0008,
FFFF,
0007,
0000,
0002,
0011,
FFF4,
0003,
FFFF,
0006,
0009,
FFF7,
FFF2,
0015,
0004,
0012,
FFF1,
0015,
FFF3,
FFF5,
FFEB,
0000,
0020,
FFFE,
0005,
0005,
0001,
000F,
0011,
0000,
000E,
FFFE,
FFFE,
000C,
FFF8,
000F,
FFF8,
000D,
0009,
0005,
FFFB,
0003,
FFFB,
0005,
FFF2,
0002,
FFF9,
FFFE,
FFFB,
FFEB,
FFFA,
FFF2,
0008,
000E,
000A,
FFFE,
0002,
FFF9,
FFF6,
0008,
FFFD,
FFF8,
0005,
0005,
0002,
000E,
000C,
0000,
FFF9,
FFF7,
000C,
0004,
0014,
0009,
0002,
000E,
0007,
FFF7,
000E,
0001,
0009,
FFF9,
FFFE,
FFFC,
0006,
FFEF,
0001,
0010,
0003,
FFF3,
FFFF,
0007,
0019,
FFF1,
FFF0,
0016,
FFFE,
FFF9,
FFFF,
0019,
0002,
0008,
0006,
FFEC,
0005,
FFE6,
0012,
FFFA,
0004,
0008,
FFF8,
0008,
000D,
0004,
000D,
FFFA,
FFFD,
FFF9,
0003,
FFF7,
0007,
FFFC,
FFFF,
0000,
000A,
0009,
0005,
0001,
FFFD,
0007,
FFF3,
000E,
0001,
0005,
0005,
000D,
0008,
FFEC,
0004,
0012,
FFF7,
0017,
FFF8,
FFF8,
0002,
0001,
FFFF,
FFFA,
0009,
0003,
FFF4,
FFF7,
FFF4,
0006,
0007,
0002,
FFF4,
FFF6,
FFF4,
0006,
0000,
FFF5,
000B,
0013,
001C,
FFED,
FFFD,
FFEE,
FFF2,
FFF0,
FFF5,
FFF4,
0010,
FFFB,
0001,
0004,
FFF8,
0004,
0005,
FFF9,
0008,
FFF2,
0001,
0014,
0005,
0010,
000C,
FFEC,
0001,
0005,
0000,
000B,
FFF6,
FFFD,
0006,
0008,
FFFC,
000A,
000C,
000C,
0009,
FFF8,
FFF0,
0003,
0009,
FFFF,
FFF8,
0002,
FFFA,
0017,
FFFF,
0002,
0017,
000C,
0006,
0000,
FFF2,
000D,
0008,
000D,
FFEC,
0003,
FFF2,
000B,
FFEE,
0004,
FFFF,
0005,
000C,
0000,
000B,
FFFB,
FFFA,
FFFE,
FFF5,
0010,
FFFC,
0003,
0010,
FFEB,
FFF6,
FFFE,
FFF7,
0018,
FFFA,
FFF0,
0005,
FFFB,
0011,
FFF6,
000E,
0007,
FFF6,
001D,
0005,
FFFF,
FFF3,
FFF9,
0004,
FFFC,
FFFC,
000A,
0000,
FFF7,
000A,
FFF3,
FFFC,
0007,
0008,
FFFC,
0007,
FFF8,
FFF5,
000C,
0000,
FFFF,
FFF3,
FFFD,
000E,
0007,
0003,
0007,
0010,
FFFD,
FFF8,
FFF9,
0002,
FFFC,
0005,
000D,
FFFF,
000B,
FFED,
0004,
000A,
FFE6,
0009,
FFFF,
FFFF,
FFFC,
0004,
0014,
0000,
FFFE,
0000,
000C,
0017,
0009,
0005,
0003,
000F,
FFFC,
FFEF,
0017,
0000,
000B,
FFFD,
000F,
0000,
0008,
000D,
FFF8,
0011,
FFF9,
FFFC,
FFFB,
FFF2,
FFFE,
FFFF,
0003,
FFF1,
0008,
0009,
0007,
FFEC,
0003,
FFF4,
000B,
000A,
000A,
000D,
FFFB,
FFF9,
0001,
FFFE,
0001,
0000,
0001,
0008,
0007,
0000,
000D,
FFF7,
FFF7,
0008,
FFFA,
FFF0,
FFFD,
0002,
0005,
0006,
0003,
000A,
0010,
FFFB,
0003,
0008,
FFF6,
000D,
000E,
FFE8,
FFFE,
0022,
FFF9,
FFFC,
0001,
0008,
0003,
FFF7,
FFF0,
FFFE,
0002,
0010,
FFFA,
000B,
000A,
FFFD,
FFFB,
0006,
000D,
0000,
0017,
0005,
0026,
FFE9,
FFFD,
FFFF,
FFFA,
0013,
FFF5,
FFFF,
000D,
0008,
FFED,
FFFB,
0009,
FFF2,
0006,
0006,
FFEF,
001F,
FFFA,
0011,
0001,
0007,
0002,
000D,
0008,
0006,
0012,
0001,
FFF6,
0007,
0001,
0006,
FFF3,
0005,
FFFD,
0006,
0014,
0001,
0005,
FFF3,
0010,
0009,
0012,
000E,
FFEF,
0008,
0002,
FFF0,
FFF1,
0000,
0002,
FFF6,
0005,
FFF5,
0006,
FFFE,
FFF2,
FFFE,
FFFC,
FFF6,
FFFB,
0002,
0010,
FFF2,
FFEA,
FFE6,
000A,
FFFA,
000C,
0000,
FFFD,
FFF2,
0002,
FFF7,
FFF8,
FFF3,
FFF3,
0008,
FFFC,
FFF0,
0010,
0000,
FFFA,
000C,
0007,
0007,
FFFE,
0005,
FFFF,
FFF6,
0000,
000C,
0009,
0013,
FFFF,
FFFF,
0005,
0001,
FFED,
FFFF,
0012,
FFEF,
FFFD,
0000,
000F,
FFF1,
FFEF,
FFFE,
000F,
FFEC,
0018,
000B,
FFF9,
FFF8,
000B,
0006,
000F,
FFF9,
FFF7,
FFF6,
000C,
FFF9,
0011,
FFFD,
0002,
0009,
000A,
FFFE,
FFFE,
0011,
FFFE,
000C,
000C,
FFEE,
FFF6,
0000,
000A,
0007,
FFFC,
0018,
FFFE,
0000,
FFFE,
000C,
FFFE,
0009,
FFF7,
0014,
FFFA,
FFF1,
000E,
FFF6,
0007,
FFFB,
000E,
000F,
0005,
0000,
0000,
0012,
0008,
FFF6,
0003,
FFFE,
FFE3,
000D,
000E,
0000,
0007,
000D,
000D,
FFF9,
FFF4,
0002,
FFF6,
0007,
FFFE,
FFF9,
FFF9,
FFFE,
0002,
FFF6,
0001,
FFFB,
0004,
0016,
FFF6,
0000,
000E,
FFF4,
0002,
0013,
0010,
FFFF,
0003,
FFFE,
0024,
0010,
0008,
FFF6,
0014,
FFF5,
FFEA,
FFF9,
FFFC,
FFFE,
0001,
0001,
001E,
0006,
0013,
0004,
FFF7,
0006,
0003,
000C,
0000,
0007,
FFFD,
FFF5,
000B,
000E,
0007,
0001,
0007,
0011,
FFFD,
0003,
FFFB,
0005,
FFFC,
0000,
0004,
FFEF,
0003,
FFEB,
000E,
0002,
000A,
0008,
FFFF,
FFFE,
FFF4,
FFE8,
0004,
0006,
0002,
FFFF,
0008,
0001,
FFEE,
FFFC,
FFFC,
0003,
0003,
FFF5,
FFFF,
0003,
FFFB,
0001,
0005,
FFFA,
FFFD,
FFFD,
FFFF,
0000,
0001,
FFFF,
FFF9,
000D,
FFFB,
0008,
FFFF,
0002,
0008,
0002,
FFFD,
FFF9,
FFF9,
FFFD,
FFFD,
FFFB,
0000,
0000,
FFF6,
FFF4,
FFF4,
FFFF,
FFF3,
0005,
FFFF,
000B,
0002,
0006,
0003,
FFF9,
FFF8,
0000,
0002,
0004,
0005,
000C,
FFF4,
0003,
FFFF,
FFFE,
0007,
0003,
0000,
000A,
000B,
FFFF,
FFF5,
FFFE,
0001,
0004,
FFFC,
0002,
FFFC,
0001,
FFF3,
FFF9,
000E,
FFF7,
FFF6,
000F,
FFEF,
FFFB,
0001,
0000,
000C,
FFFC,
FFF4,
0000,
FFF8,
FFFF,
FFFA,
FFF0,
FFF7,
0004,
0008,
0001,
FFFE,
0003,
0003,
000E,
000B,
FFFE,
0008,
0001,
0003,
FFF7,
0006,
FFFA,
0004,
FFFB,
FFFF,
000B,
0001,
FFF2,
0001,
000A,
FFFA,
FFFF,
0005,
FFF0,
FFFA,
FFFE,
0008,
FFE9,
FFFB,
FFFB,
FFF0,
FFF0,
FFF4,
FFFE,
FFF2,
FFFB,
FFF3,
0018,
0007,
FFF2,
001B,
FFFB,
0007,
FFFE,
FFF8,
0002,
000C,
000A,
FFFD,
000B,
FFFA,
FFF8,
0004,
FFF9,
FFFB,
0010,
FFE9,
FFF6,
FFFD,
FFFF,
FFF6,
000E,
0005,
FFFF,
0004,
FFFC,
0000,
FFE7,
FFF7,
FFFA,
FFF5,
0001,
FFFC,
FFEC,
FFFD,
000D,
0003,
0009,
0001,
0003,
0000,
001B,
FFF8,
FFFB,
FFF7,
0014,
0011,
0005,
0001,
0008,
000A,
0006,
FFF4,
FFFA,
FFFB,
FFF3,
FFFC,
0008,
FFF4,
FFF6,
0016,
FFF7,
FFEE,
FFFE,
0004,
0000,
FFFA,
000F,
0003,
000A,
0004,
0000,
0005,
FFFD,
FFFB,
FFF9,
FFF3,
000A,
000F,
FFF7,
000E,
0003,
000B,
FFFF,
FFEC,
0005,
000C,
000A,
000E,
FFFC,
0008,
0000,
0011,
0007,
0010,
FFF3,
0010,
0017,
FFFE,
0003,
0005,
FFFA,
FFFE,
0002,
0001,
FFFA,
0005,
FFFD,
FFFA,
0003,
FFFA,
FFF9,
FFF8,
0007,
0008,
0006,
FFF0,
0009,
FFF2,
0000,
0002,
000B,
FFF2,
000B,
FFED,
FFF4,
0008,
FFFD,
FFFF,
FFFC,
FFFF,
FFF6,
000A,
000B,
0010,
0000,
FFF0,
0002,
FFFF,
FFFB,
0007,
0006,
FFFA,
0006,
0004,
FFF0,
0001,
FFF6,
0005,
FFFC,
0008,
000C,
0003,
FFFC,
0005,
FFFF,
FFFD,
FFF4,
FFF7,
0003,
001F,
FFFB,
FFF2,
FFE8,
FFFE,
FFFB,
FFF9,
FFEE,
000A,
0000,
0004,
000E,
FFFF,
FFF4,
FFF3,
0003,
FFFA,
0012,
0009,
FFF8,
FFFA,
FFFB,
FFF8,
FFFE,
0007,
FFFF,
0004,
FFF8,
FFEC,
0001,
0007,
FFF6,
0015,
0002,
000D,
FFF3,
000D,
FFF9,
0003,
0003,
0000,
0004,
0009,
FFFF,
0000,
0005,
0017,
FFF0,
0001,
0009,
0001,
FFFD,
FFFF,
0006,
FFF4,
000B,
0008,
FFE7,
FFFB,
0005,
0001,
0005,
000D,
0003,
FFF2,
FFEF,
FFE5,
0003,
0008,
000F,
000E,
FFF7,
000C,
0006,
0008,
FFF1,
FFFF,
FFEB,
0007,
0016,
0001,
FFEB,
FFF8,
0006,
001E,
FFF1,
0000,
FFFD,
FFEF,
0000,
FFEC,
0000,
FFFE,
0007,
0006,
FFFF,
FFFA,
0001,
000A,
000D,
0002,
FFFF,
000C,
FFFA,
FFFF,
0008,
0001,
0008,
FFF9,
0009,
0001,
000D,
001A,
0002,
FFFF,
000A,
FFFC,
0009,
FFFE,
0012,
0005,
0010,
0011,
0007,
FFFD,
FFF2,
FFE8,
000E,
FFF9,
0004,
FFEE,
FFFC,
FFFA,
0004,
0001,
FFF0,
0000,
0004,
FFDA,
000D,
0007,
FFFB,
0007,
FFE7,
0019,
0004,
000C,
0013,
000B,
FFED,
FFFD,
FFE6,
0003,
0018,
000B,
0008,
001B,
0002,
0000,
FFFA,
0001,
FFF3,
000D,
0012,
0000,
FFF5,
0006,
FFFE,
0002,
FFF8,
FFE9,
0002,
FFEB,
0012,
0006,
0004,
FFF8,
0004,
0005,
0009,
FFFD,
0009,
0012,
0004,
0005,
FFE5,
0006,
FFFD,
FFFB,
0004,
000A,
FFD9,
0003,
000A,
0013,
0007,
0005,
0002,
0006,
FFF9,
000C,
FFFE,
FFF6,
FFFF,
0011,
0004,
000D,
FFFE,
FFFA,
0012,
FFEF,
FFFF,
0012,
FFFC,
0008,
0002,
0000,
0003,
0009,
FFF7,
FFFE,
0000,
FFFB,
FFF9,
000B,
FFFB,
FFFB,
0001,
FFFB,
000F,
0009,
0002,
0008,
000E,
FFFB,
FFEE,
0005,
FFFE,
0000,
000E,
0006,
0010,
0002,
FFFA,
000E,
001D,
0007,
FFF6,
FFFE,
0002,
FFFF,
000A,
0003,
FFF7,
0001,
0008,
0002,
FFFC,
000E,
FFFD,
0018,
FFED,
FFFC,
0018,
0011,
FFF5,
0006,
0001,
FFFC,
FFF5,
000F,
FFF3,
000A,
FFFB,
FFF6,
000B,
FFFB,
0009,
0003,
0002,
0007,
FFF7,
FFFA,
FFF7,
FFEA,
FFF0,
0010,
FFF4,
0004,
FFFB,
0003,
FFFF,
000C,
000C,
FFFD,
000B,
0009,
0000,
FFFE,
FFFD,
0020,
FFF2,
0007,
0001,
000A,
0002,
FFFB,
FFF4,
FFF5,
0005,
FFFF,
FFFE,
0005,
0013,
FFFF,
FFF0,
000C,
0003,
FFF5,
000B,
0007,
FFFC,
FFFF,
FFF4,
0003,
000B,
FFFA,
0015,
0015,
0008,
0007,
000F,
FFFB,
0002,
FFE7,
FFEF,
FFF1,
FFF2,
FFFE,
FFF3,
000D,
FFFE,
0003,
0006,
FFFA,
FFF8,
0000,
FFFC,
0004,
FFF6,
0001,
FFF9,
0006,
FFF9,
000C,
0010,
FFE7,
000C,
FFF7,
0011,
FFF4,
FFFE,
0003,
0000,
0004,
FFF3,
0001,
000C,
FFF6,
0000,
FFF5,
000A,
FFFF,
0014,
0007,
0014,
FFF5,
FFF1,
0000,
0017,
0005,
0018,
0002,
000A,
FFFC,
FFF7,
000E,
FFFA,
0005,
FFFB,
FFF5,
FFFA,
FFE4,
FFFB,
0009,
0010,
000A,
0002,
FFF7,
FFFC,
0005,
0005,
000E,
FFFC,
FFE5,
000B,
FFE9,
000B,
0010,
000B,
000A,
0005,
FFF6,
000C,
0004,
FFF2,
0001,
FFF3,
FFF2,
FFF5,
0000,
FFF8,
0000,
FFFE,
FFFE,
FFEC,
FFD6,
FFFF,
FFFF,
FFFE,
FFF2,
FFF5,
FFEB,
0006,
FFFF,
FFFF,
0002,
FFF4,
FFFC,
FFF5,
FFEE,
FFF8,
0006,
0000,
FFFB,
FFFB,
FFF1,
FFFC,
0003,
0017,
FFFF,
0001,
0008,
FFE0,
FFE2,
FFF6,
0014,
0003,
000A,
FFF3,
FFFE,
FFFF,
0003,
FFF7,
000C,
000B,
0002,
000C,
0011,
FFF4,
0002,
FFF9,
0017,
0012,
0006,
FFFF,
FFFF,
000B,
0000,
FFEF,
FFFF,
FFFF,
000A,
FFFE,
0006,
000E,
FFF5,
0006,
FFF4,
0014,
0007,
0009,
0008,
000B,
FFF6,
FFF5,
0002,
0002,
0008,
FFF4,
FFFF,
0004,
FFF5,
0008,
0006,
000F,
0003,
0000,
0006,
0009,
0002,
FFFC,
FFFA,
FFFB,
FFFE,
FFFC,
000F,
FFF2,
000C,
FFFF,
000A,
0003,
FFFE,
0001,
FFFB,
FFF7,
FFFF,
FFEC,
FFF0,
FFFD,
0002,
0014,
0002,
FFF9,
FFEE,
FFFD,
000A,
0008,
FFFF,
FFFA,
000E,
0008,
FFFD,
FFF8,
0007,
0000,
000D,
0006,
FFFF,
000B,
FFFF,
FFFE,
FFF9,
0018,
0000,
FFF4,
FFF9,
000C,
0001,
FFF0,
0004,
0005,
0001,
FFF1,
FFF8,
FFF5,
0007,
0008,
FFF5,
0009,
0002,
0008,
FFF9,
FFFE,
0004,
FFF7,
0001,
FFF1,
FFF8,
FFFD,
000F,
FFFB,
FFF9,
FFF3,
FFED,
FFF1,
FFFD,
FFF2,
0004,
0004,
FFF8,
0003,
0003,
000A,
0007,
FFF0,
0010,
FFFA,
0005,
000D,
FFFD,
FFF7,
0005,
FFE1,
FFF7,
FFFA,
000A,
0000,
0000,
FFF9,
0003,
000F,
0007,
000A,
0007,
FFFD,
FFE3,
FFFF,
0002,
FFFF,
0010,
FFF9,
0004,
0008,
FFFE,
FFFC,
0005,
000C,
0006,
0003,
FFFF,
FFF6,
FFFF,
FFFF,
0009,
0002,
0003,
0012,
0000,
0011,
FFF5,
FFFE,
FFFB,
FFEA,
0004,
0004,
0009,
FFFA,
FFFE,
0004,
0000,
0006,
000C,
0004,
FFFE,
000C,
FFF7,
0004,
0008,
FFF9,
0002,
FFF1,
FFFA,
000A,
FFFB,
000F,
0017,
000A,
0003,
0000,
0001,
0003,
0000,
FFFF,
0001,
FFFC,
FFF6,
FFF9,
0007,
FFFC,
FFF8,
0001,
FFDD,
FFFE,
0002,
0000,
FFEF,
0002,
0002,
FFFA,
FFF1,
FFF8,
FFF7,
FFFC,
FFF9,
FFF6,
FFED,
FFFF,
FFF6,
0012,
0007,
0006,
0003,
0002,
000B,
0002,
FFF5,
FFEC,
0008,
FFF3,
0004,
0003,
0014,
000A,
0000,
FFF4,
0007,
0001,
FFFC,
FFF7,
0008,
0010,
FFFB,
FFF6,
FFFB,
FFF6,
FFFF,
0017,
FFFF,
FFE7,
FFFF,
FFFB,
0002,
FFFF,
0003,
0011,
0006,
FFDA,
0006,
FFF7,
0004,
FFFC,
000C,
FFFE,
FFFC,
0003,
0004,
0002,
0002,
FFFC,
FFFF,
FFF2,
FFFE,
0014,
FFFE,
FFF9,
FFF2,
0011,
0005,
FFEF,
0007,
0016,
FFF7,
0009,
FFFF,
FFF3,
FFF5,
FFFB,
FFF3,
000D,
0001,
0008,
0003,
0008,
FFFF,
0009,
000C,
FFFC,
FFFE,
001B,
FFF4,
FFF7,
000A,
0000,
FFFB,
0002,
FFF5,
0003,
FFEA,
0006,
0006,
000B,
FFF9,
FFFD,
FFF5,
0001,
000E,
FFFD,
0007,
0007,
FFFB,
FFF0,
FFFE,
FFFD,
0002,
0006,
FFF3,
FFF6,
FFF8,
FFFE,
FFFB,
0005,
0000,
FFFC,
FFF0,
FFFF,
0006,
0005,
000C,
0004,
0009,
0013,
0000,
FFF9,
0003,
0003,
0009,
0000,
FFF8,
FFF8,
0000,
FFFE,
0008,
FFF9,
FFF4,
0000,
0012,
0009,
FFFC,
FFFF,
FFF9,
FFFB,
FFE4,
0016,
FFFD,
FFEE,
0007,
FFED,
FFFB,
FFF1,
000A,
000A,
FFE5,
0001,
0001,
FFF7,
0000,
FFFA,
0002,
FFEF,
0004,
0001,
000C,
FFFA,
0003,
FFFA,
000D,
FFEF,
0005,
FFF5,
0005,
FFF7,
0009,
FFF4,
0005,
000F,
000D,
0002,
0001,
0008,
FFF3,
000D,
FFF5,
FFF2,
0009,
0001,
FFE3,
0001,
000C,
FFFB,
FFF5,
0001,
FFF3,
000A,
FFFC,
0002,
FFFE,
FFF4,
FFF4,
FFF5,
FFEE,
FFF2,
0013,
0004,
FFF8,
0001,
0008,
0004,
0001,
FFF1,
0001,
FFFD,
000B,
FFF3,
FFF9,
0005,
0005,
FFFD,
0008,
FFFC,
0002,
FFFF,
0012,
FFF7,
FFEF,
FFFE,
0007,
0005,
FFEA,
FFF5,
FFFC,
000D,
0002,
0005,
FFFF,
0001,
0009,
FFFD,
FFF7,
0000,
0006,
000C,
0009,
FFF8,
0008,
FFFC,
FFF2,
FFFB,
0002,
FFFB,
000F,
FFF0,
0007,
FFF4,
0003,
FFF8,
FFF8,
FFFD,
FFF8,
FFEF,
FFFF,
FFF8,
FFFF,
0004,
FFFC,
0000,
0005,
FFFC,
FFF0,
0003,
0000,
FFFB,
0006,
FFFF,
FFFF,
FFFD,
000C,
0000,
000D,
0002,
0000,
0002,
FFF7,
FFFC,
0006,
FFFC,
0011,
0009,
0003,
FFEB,
0002,
0006,
FFFB,
FFF8,
0002,
0001,
0001,
000D,
0002,
FFFE,
000B,
FFFB,
0003,
FFFB,
FFF5,
0005,
FFF8,
0014,
0011,
0003,
FFFC,
000F,
000B,
0004,
0001,
FFF6,
FFF8,
0007,
FFFB,
0008,
0009,
FFF8,
FFF8,
0007,
FFFB,
FFFF,
0001,
FFFE,
0006,
0006,
0008,
0000,
000F,
FFEB,
FFFC,
FFFE,
000D,
0006,
FFE9,
0005,
0003,
0001,
FFFA,
000A,
FFFD,
FFD5,
0009,
FFF6,
FFF2,
0001,
FFFF,
0003,
0008,
FFFE,
0004,
FFF9,
0002,
0001,
0009,
000D,
FFFE,
0003,
0003,
FFFE,
000F,
FFF8,
000C,
FFFA,
FFFA,
0001,
FFFA,
0006,
FFFE,
0011,
001B,
FFF3,
FFFE,
FFF7,
0000,
FFF7,
FFFF,
000C,
FFFB,
FFFA,
FFF2,
0000,
FFF5,
0001,
000C,
0004,
FFF8,
0006,
0003,
000C,
0010,
FFF3,
0001,
FFFE,
0009,
0006,
0001,
FFEE,
0002,
FFFD,
000A,
0002,
FFF9,
0009,
000F,
0016,
0006,
FFFB,
0004,
0008,
FFFB,
0016,
000B,
000B,
000D,
FFFF,
FFF8,
0003,
000C,
FFF8,
000D,
0004,
FFED,
0007,
000E,
0009,
FFF0,
FFFB,
0001,
FFF6,
000F,
FFFD,
0004,
0004,
000D,
000B,
0000,
0003,
0001,
FFFE,
FFF3,
000F,
0016,
0013,
0006,
0006,
000F,
FFF1,
000D,
000C,
0005,
FFF6,
0000,
FFFE,
0004,
0005,
0009,
000A,
0000,
000C,
FFF8,
0006,
FFFC,
FFFC,
FFFB,
000D,
0002,
FFF8,
0018,
0006,
FFF2,
FFEC,
0004,
0002,
0001,
FFE6,
0009,
FFF5,
FFF8,
0000,
FFFC,
FFF1,
000D,
FFFB,
FFEB,
0003,
FFE4,
FFF4,
FFF7,
FFEC,
000B,
FFEE,
0004,
0004,
0010,
FFF3,
0006,
0004,
FFF3,
FFFF,
000B,
FFFC,
0007,
FFF9,
0005,
FFF3,
0001,
0005,
FFFF,
000A,
FFF4,
FFFB,
0006,
0003,
FFFE,
FFFB,
000A,
0008,
FFFD,
0009,
FFEE,
FFF4,
0011,
FFF1,
FFF9,
FFF5,
0002,
0002,
FFF2,
FFF8,
0005,
0003,
FFF5,
000C,
0006,
FFEB,
0002,
000B,
0002,
0004,
FFF4,
FFF9,
FFFD,
0017,
FFEF,
FFEF,
FFF9,
0011,
000E,
0002,
FFF7,
0001,
000E,
FFF1,
FFF6,
000E,
FFEC,
FFF7,
0003,
0009,
0003,
0005,
FFFA,
0003,
0010,
0010,
0001,
0009,
0013,
0002,
FFE0,
FFF5,
0008,
0004,
0007,
0001,
0002,
FFE0,
0003,
0007,
0002,
0008,
0017,
FFFD,
000E,
0008,
0000,
FFF4,
FFFB,
0015,
FFFA,
0006,
000C,
0005,
0007,
0005,
0017,
FFFF,
FFFB,
0003,
FFFF,
0001,
FFFC,
0011,
0006,
FFF5,
FFF8,
0003,
FFF5,
FFF3,
FFF6,
FFFC,
0008,
0004,
FFFD,
0001,
0008,
0006,
0007,
0002,
0003,
0005,
FFFA,
0025,
000A,
001C,
FFF3,
FFFF,
000C,
0007,
FFFE,
0014,
000E,
0001,
0006,
0006,
000C,
0008,
FFFF,
001B,
0011,
FFF6,
FFF9,
0004,
0006,
FFFA,
0003,
FFFA,
0008,
FFE3,
FFFE,
0006,
FFFE,
FFFB,
0009,
FFF6,
0001,
0002,
0001,
FFF4,
0016,
FFF9,
0006,
FFF9,
000F,
0014,
001B,
0009,
0006,
0014,
0001,
0014,
FFFD,
0000,
0000,
000A,
0005,
FFF8,
FFF9,
000A,
FFF6,
000E,
0003,
FFFF,
0004,
0009,
000B,
0005,
0004,
0004,
000C,
FFF9,
0000,
0020,
0005,
FFF8,
FFFD,
FFEC,
FFD2,
FFF0,
0000,
0010,
FFF7,
0003,
FFFF,
FFF7,
FFFA,
FFEC,
FFF7,
0006,
FFFB,
000F,
FFFF,
FFFE,
0000,
FFFD,
0002,
FFF4,
FFF3,
FFFC,
FFF4,
FFFD,
FFF9,
0006,
FFF6,
0008,
0001,
0005,
001D,
0005,
0008,
0012,
FFFA,
FFF6,
0001,
0000,
FFF6,
FFFD,
0020,
0008,
000A,
FFF7,
FFFD,
0003,
000F,
FFE3,
0003,
0007,
0001,
FFF5,
FFF7,
FFF6,
FFF5,
FFFE,
0001,
FFFD,
FFF6,
FFFE,
000F,
FFFF,
FFEF,
0006,
0018,
FFF3,
000C,
FFFF,
FFEF,
FFF7,
0009,
FFF4,
000F,
0002,
FFFA,
0000,
0005,
0003,
FFE6,
FFF5,
0001,
0000,
0009,
FFE6,
0012,
0000,
000E,
0005,
000F,
FFFA,
0000,
000B,
FFE6,
0004,
FFF4,
0000,
0001,
0000,
0002,
FFF6,
0006,
FFEA,
FFF2,
001B,
FFFB,
FFFD,
FFDC,
FFFC,
0003,
FFF6,
000E,
FFFF,
FFF5,
FFF8,
0004,
0005,
0000,
0003,
000A,
FFF9,
FFF8,
0000,
FFFE,
0004,
0006,
0009,
0006,
FFE0,
0019,
0004,
FFF5,
FFEF,
FFFF,
FFF6,
0008,
FFFC,
0000,
0000,
0009,
FFF9,
0001,
0003,
FFFB,
FFFC,
FFF5,
FFFA,
0002,
0014,
0000,
000F,
0006,
0000,
000B,
FFF8,
FFEF,
FFFA,
FFFD,
FFF1,
0009,
0006,
FFFA,
FFF9,
FFF6,
FFFD,
000B,
000C,
000A,
FFF6,
0001,
0005,
0000,
FFF4,
FFF5,
FFFB,
FFF7,
FFF6,
0006,
0004,
FFF2,
FFEB,
FFFC,
0007,
0011,
FFE1,
0001,
000B,
000C,
0004,
FFEE,
FFE6,
FFED,
000A,
0003,
FFEF,
FFF4,
0005,
000E,
FFF5,
FFFF,
FFFB,
FFFC,
000C,
FFF7,
FFF8,
FFF3,
000B,
FFFA,
0008,
000C,
FFF9,
0004,
001E,
0000,
0014,
FFF5,
0007,
000E,
FFFB,
FFC2,
0006,
FFED,
FFFB,
FFFC,
FFF0,
FFF6,
FFFE,
000C,
FFFD,
0005,
000B,
FFF9,
0037,
FFF9,
FFF7,
0007,
FFFD,
0001,
0008,
0002,
FFE2,
0022,
FFF5,
000C,
000B,
0001,
FFFA,
000F,
FFFE,
FFF7,
FFFB,
FFEF,
FFF7,
0003,
FFF7,
FFF8,
FFFA,
FFF7,
FFF8,
FFF4,
000B,
FFFD,
FFF3,
0007,
0003,
0000,
0005,
0009,
0006,
000A,
FFF7,
FFF0,
0015,
FFFA,
FFE4,
000F,
0000,
000C,
001F,
FFFB,
0002,
0000,
FFE9,
0003,
0011,
0013,
0003,
000E,
FFE1,
0000,
FFF9,
0005,
0006,
0001,
0001,
FFFF,
0006,
0023,
000A,
0005,
FFF9,
0017,
000D,
FFF0,
FFFF,
FFFE,
0002,
FFF8,
FFF9,
FFF3,
0008,
FFFC,
FFF2,
FFF4,
FFFA,
FFDF,
FFEE,
FFD1,
0011,
0002,
FFF4,
FFFF,
0008,
FFF5,
FFFF,
0000,
FFFD,
FFFC,
000B,
0000,
0009,
FFF7,
0002,
FFF8,
FFEF,
FFEC,
0011,
0001,
0006,
FFFC,
0007,
0000,
000A,
FFFA,
FFF4,
FFE7,
0015,
0011,
0017,
0004,
0005,
000F,
FFEC,
FFFC,
FFFC,
000F,
FFE6,
FFF4,
0009,
FFFF,
FFF9,
0005,
0006,
FFFA,
0012,
FFFF,
FFFB,
0010,
000A,
FFF3,
0015,
000A,
FFFB,
0003,
FFFD,
0001,
FFFB,
0000,
FFFB,
0005,
FFE2,
FFF9,
FFEF,
0006,
001E,
000C,
000C,
FFF1,
0008,
0006,
FFFB,
FFF4,
0003,
000F,
001D,
0006,
0000,
FFF6,
0006,
FFF7,
FFFC,
0007,
FFFE,
FFFD,
FFFA,
0000,
FFEA,
0016,
0009,
000B,
FFFE,
0004,
0019,
FFE8,
FFFC,
000A,
000D,
000F,
FFF2,
0003,
FFF3,
0003,
0001,
FFF1,
FFF5,
0000,
0007,
0007,
FFF7,
FFFA,
0000,
FFF4,
FFF7,
000B,
FFF9,
0005,
0003,
FFFF,
FFF3,
000D,
0009,
000F,
FFFB,
0010,
FFFE,
FFF8,
FFFC,
FFF3,
FFE9,
0007,
0009,
0003,
0001,
FFFE,
0008,
FFFD,
FFF7,
0007,
0001,
000B,
FFFB,
FFFC,
0016,
0011,
0006,
0005,
FFD3,
0006,
0002,
0006,
FFFA,
000A,
FFF8,
0001,
0004,
0001,
0003,
0015,
FFE8,
FFFE,
FFFD,
FFEA,
0016,
0021,
FFFB,
0007,
000D,
FFE3,
000D,
000A,
000B,
000C,
000A,
0009,
0018,
0017,
FFFE,
FFF8,
FFF9,
0003,
0002,
FFF4,
FFF4,
0007,
FFFB,
0003,
FFE4,
0012,
FFFE,
FFD6,
0010,
FFFD,
FFEF,
FFCD,
FFFA,
0001,
FFF7,
0000,
0001,
FFF8,
0002,
FFF6,
0003,
0000,
FFE4,
0009,
FFF0,
FFF4,
000A,
FFF3,
FFF1,
FFEB,
FFFD,
FFFA,
FFF1,
FFDE,
0011,
0001,
0009,
FFF7,
FFE8,
0009,
0011,
000D,
FFF5,
0004,
FFF7,
0001,
001A,
FFF6,
000D,
FFFF,
FFFB,
FFEB,
0004,
FFFA,
0002,
FFF7,
0000,
001A,
FFF9,
001C,
FFF9,
0004,
0006,
0000,
000E,
FFFE,
000B,
FFF5,
FFFA,
FFF6,
FFF6,
0005,
FFFF,
FFF6,
001E,
000D,
FFEB,
FFF1,
0009,
0009,
FFFF,
0014,
0009,
0003,
FFF9,
000B,
0000,
000F,
0000,
FFE2,
000B,
0002,
0002,
FFF4,
0002,
FFFC,
0005,
0004,
0005,
0002,
FFF7,
FFF0,
FFFA,
FFF7,
0004,
0015,
000B,
FFDE,
0003,
0002,
FFF2,
0000,
FFEF,
0015,
0006,
FFF6,
000D,
0003,
FFFE,
FFF6,
FFF5,
0004,
FFE2,
0001,
0012,
000D,
FFFA,
000A,
000D,
0006,
0005,
FFFE,
FFF4,
FFEF,
0007,
000A,
0000,
0017,
0008,
000D,
000F,
0011,
0009,
0021,
0008,
0006,
0005,
FFF9,
0008,
FFF7,
0006,
000A,
0001,
FFF4,
000A,
FFF5,
000E,
FFF8,
FFFD,
0010,
FFFC,
0008,
0005,
0007,
0001,
0009,
0007,
FFEE,
0003,
0003,
0002,
001D,
0005,
FFFD,
000A,
FFFA,
0006,
FFF0,
FFFD,
000D,
FFFA,
0006,
FFFC,
FFFA,
FFFD,
FFFD,
FFFF,
0004,
FFF2,
0002,
FFF5,
FFFB,
FFFA,
FFFE,
FFFA,
0004,
0008,
0004,
0005,
FFF8,
0006,
0005,
0008,
FFF4,
FFFC,
FFED,
0008,
0010,
FFFA,
0013,
FFEE,
FFF7,
FFF7,
0001,
FFF1,
FFF5,
FFFC,
0001,
FFFC,
0007,
0009,
0008,
0000,
FFFA,
FFFD,
FFFB,
000A,
000A,
FFF8,
000B,
0004,
FFF1,
0000,
0005,
0002,
FFFF,
FFFE,
0013,
FFFF,
FFED,
FFFC,
FFFA,
0006,
FFFC,
FFF9,
0006,
0002,
0013,
0008,
FFFF,
FFFA,
0007,
FFF5,
FFFC,
0003,
FFFF,
0003,
FFF2,
0007,
FFF0,
000E,
FFFB,
FFF2,
0004,
FFF3,
FFFD,
FFF8,
000F,
FFFE,
0014,
0003,
000D,
FFF8,
FFFF,
0008,
FFF6,
0008,
0002,
0001,
FFF3,
FFFD,
0015,
0000,
FFF3,
FFFF,
0001,
FFF9,
0007,
FFF9,
0009,
000D,
0008,
000F,
0004,
0016,
FFFC,
0009,
FFF4,
0009,
000B,
FFFA,
0011,
0000,
FFF4,
0004,
0007,
FFF1,
0004,
FFED,
0005,
0006,
FFFA,
FFFB,
FFFF,
FFFD,
000D,
0002,
FFF0,
FFFD,
FFF0,
FFFE,
FFF0,
0002,
FFFF,
0004,
0004,
0006,
0013,
FFF8,
000F,
0005,
FFFF,
0012,
FFFF,
FFFE,
FFFE,
FFF3,
0000,
000A,
FFF0,
0003,
FFFE,
FFF2,
0001,
0007,
FFF9,
FFF5,
FFF9,
FFF9,
000B,
0000,
FFFD,
FFFB,
FFFD,
FFED,
0002,
0005,
FFFD,
0004,
FFF9,
0004,
FFFA,
0010,
FFF6,
FFFE,
0002,
FFFA,
000A,
FFF7,
FFFE,
0002,
FFF2,
FFFA,
0002,
0006,
FFFD,
000C,
0008,
FFFC,
FFF2,
FFFA,
FFED,
000D,
0002,
FFFD,
0007,
FFFF,
FFFA,
FFFC,
FFF4,
0002,
FFFE,
000B,
FFF0,
000B,
000B,
FFFF,
FFF7,
0001,
0016,
FFF8,
000F,
000C,
000A,
FFF3,
0005,
0001,
0006,
000A,
0006,
0007,
000A,
FFF5,
0007,
FFFA,
0010,
FFFA,
0002,
000A,
000A,
FFEF,
0015,
FFEE,
FFFE,
FFE1,
0001,
0001,
FFED,
0002,
FFFC,
0005,
FFFA,
FFF4,
000B,
0006,
0000,
0006,
FFF5,
FFFB,
0004,
FFF2,
FFF9,
0008,
000D,
FFFE,
0002,
FFFB,
FFFB,
FFF3,
000A,
FFF1,
FFF6,
000F,
000E,
FFF8,
FFF1,
FFF6,
0002,
0008,
0002,
FFFB,
FFFC,
0003,
FFF0,
FFFF,
0006,
000C,
FFF8,
0007,
FFFA,
FFEE,
FFF8,
FFF7,
001A,
0002,
000C,
FFF8,
FFF6,
0001,
0005,
0009,
FFF8,
0007,
FFFA,
FFF6,
001D,
0003,
000B,
FFF8,
000A,
FFFB,
000B,
0004,
0002,
0007,
FFF8,
FFFF,
0008,
FFFC,
FFF5,
FFFD,
000C,
FFFE,
0004,
0001,
FFFD,
FFFE,
FFFA,
FFF8,
FFF1,
0006,
FFFA,
000E,
0006,
FFF8,
0001,
000D,
0005,
FFF0,
FFFA,
FFFB,
FFFC,
FFFF,
0006,
FFF7,
0006,
FFF5,
0002,
FFF3,
0006,
000C,
0000,
000E,
FFFE,
FFFF,
FFE8,
FFEA,
0008,
FFF8,
0002,
FFED,
FFF1,
FFFA,
0006,
FFFA,
0001,
0000,
FFFA,
0003,
0001,
0006,
FFF9,
FFF2,
000C,
000B,
FFE9,
FFFD,
0011,
FFFD,
FFF9,
0003,
FFFB,
0017,
FFFB,
0017,
FFF5,
FFFB,
FFF7,
0001,
FFF7,
FFF5,
000A,
000A,
0009,
FFF8,
0008,
0006,
0009,
FFFD,
0004,
FFF6,
000B,
000F,
000E,
0008,
0009,
0012,
FFF9,
000A,
FFFA,
0005,
FFFE,
001A,
FFF8,
0005,
000A,
FFFC,
FFF8,
0005,
FFF0,
0000,
FFF3,
FFFC,
FFF1,
FFFF,
FFEA,
FFF6,
FFFE,
000B,
0010,
FFFD,
FFF3,
000E,
0004,
0000,
0000,
FFFE,
FFF9,
0011,
FFFA,
0005,
FFF1,
FFFD,
FFFA,
0003,
FFFC,
0003,
0005,
FFFE,
FFFF,
FFF4,
0003,
FFF5,
FFF8,
0009,
0003,
FFF9,
FFFC,
0001,
000E,
000D,
0006,
FFF4,
FFF4,
0000,
FFF7,
FFFE,
FFE4,
FFFA,
FFFC,
FFFF,
0009,
FFFD,
0001,
FFFC,
FFF1,
FFFA,
001C,
0010,
001C,
0003,
0006,
0010,
0006,
000A,
FFF8,
0002,
0005,
0004,
0014,
FFFD,
FFF7,
FFFD,
FFFF,
FFE6,
FFFA,
0000,
0001,
FFFD,
0003,
FFFE,
000B,
FFF8,
0001,
0005,
FFF6,
FFFE,
000E,
0014,
FFEE,
FFFB,
0002,
0004,
FFF7,
FFEC,
FFF6,
FFFF,
0011,
000C,
FFF5,
FFF9,
0005,
FFF1,
FFFB,
FFF5,
0006,
0000,
0004,
FFFF,
0005,
FFFA,
0001,
0000,
0007,
000E,
0006,
0006,
FFF8,
FFFD,
0005,
FFFE,
0007,
FFFC,
FFFD,
0005,
0001,
0005,
000A,
FFFE,
0007,
0008,
FFED,
0000,
FFF8,
0007,
FFF7,
0001,
0001,
FFFE,
FFE7,
000C,
FFF8,
0001,
FFFD,
0002,
0008,
0009,
0002,
FFE6,
0001,
0001,
0010,
0003,
000E,
FFFA,
FFFC,
0002,
FFF0,
0006,
0003,
FFFB,
FFED,
FFF6,
0002,
0007,
FFFD,
0009,
FFFE,
0005,
0005,
FFF7,
000A,
0009,
0018,
FFF3,
0001,
001B,
000A,
FFF3,
FFFF,
FFFA,
FFF5,
0004,
0000,
0019,
FFF9,
FFFB,
FFFA,
0002,
FFEF,
0005,
0003,
FFFF,
FFF8,
FFE9,
000B,
FFF2,
0018,
FFF7,
FFFD,
FFE5,
FFE8,
0003,
0008,
FFF1,
0002,
0002,
000A,
000A,
FFFD,
FFF3,
FFFB,
FFFC,
0006,
FFFF,
FFFA,
FFF2,
000D,
0003,
FFF7,
0004,
0002,
0000,
000E,
0001,
FFF1,
FFF9,
0001,
FFF5,
FFF5,
0016,
0002,
FFFE,
FFFE,
FFEA,
0006,
FFFC,
0001,
FFFA,
000C,
FFF7,
0010,
FFFF,
FFE4,
000E,
FFF6,
0001,
0003,
0004,
FFF5,
0004,
FFFA,
0006,
0003,
0000,
0006,
FFF9,
0008,
FFFA,
FFF2,
FFF5,
0003,
FFFC,
FFFB,
FFF4,
0003,
FFFD,
0005,
0003,
0010,
FFED,
000B,
0008,
0004,
FFF6,
FFFE,
FFFC,
0001,
0009,
0000,
FFFB,
FFDE,
FFFD,
FFFC,
0000,
FFF5,
0001,
0005,
FFFF,
FFFF,
0003,
000F,
000D,
FFF7,
FFFB,
000C,
FFF4,
FFFF,
FFF4,
FFFD,
FFF2,
FFFA,
0009,
0006,
FFFF,
FFF9,
000B,
0005,
0004,
FFFC,
FFF8,
FFF9,
0005,
0002,
000B,
FFF2,
000A,
FFFB,
0002,
FFF0,
0012,
0005,
0000,
000C,
0018,
FFF5,
FFF8,
FFFB,
FFF9,
0006,
0001,
000B,
000E,
FFFE,
FFF8,
FFFF,
FFFF,
FFFF,
0016,
FFFF,
FFFE,
0005,
0005,
0004,
FFF2,
FFF7,
FFF7,
0003,
FFE6,
FFE9,
000A,
000C,
FFFB,
0006,
0015,
FFFF,
FFF4,
0002,
001B,
0002,
FFFD,
000B,
0018,
FFFB,
FFF4,
0001,
000C,
0017,
FFF4,
000C,
0009,
0019,
FFFC,
0004,
0002,
FFF4,
0010,
FFFF,
0007,
0000,
FFFC,
FFF5,
FFFD,
FFF4,
0005,
0019,
0007,
FFF6,
0006,
0004,
FFF5,
FFFC,
FFFF,
0009,
0001,
000A,
FFF2,
0009,
0012,
0003,
0009,
FFF4,
FFFA,
0012,
0006,
FFFC,
FFF1,
FFF7,
0007,
000E,
0008,
FFF8,
FFF6,
0008,
FFF4,
0000,
0002,
FFE4,
FFF5,
000A,
FFF8,
FFF1,
0011,
FFF4,
0005,
FFFD,
0000,
001B,
0005,
FFF8,
0008,
0007,
0002,
0004,
001E,
FFFF,
0009,
FFF5,
FFFF,
0001,
FFFE,
0001,
0009,
FFF9,
0001,
0000,
FFF0,
FFFF,
0000,
0000,
000A,
FFF9,
FFFF,
000D,
0000,
000C,
0001,
0006,
0005,
0000,
0004,
0009,
0003,
0004,
FFFE,
FFE4,
FFFE,
0009,
FFE2,
0006,
FFF4,
0005,
0003,
000E,
FFF8,
0000,
0002,
0002,
FFF8,
0004,
0028,
0001,
FFF9,
FFFD,
FFF6,
0001,
0014,
FFEE,
FFFB,
FFF4,
0008,
0002,
000A,
FFF1,
0014,
FFFD,
FFF7,
FFE7,
FFF4,
FFFC,
0002,
000D,
0001,
0000,
000F,
0001,
FFFA,
0003,
0019,
FFED,
FFED,
0008,
0002,
0007,
FFFF,
FFEF,
0007,
FFFA,
0003,
0003,
000B,
0004,
FFFC,
FFF6,
0003,
0002,
FFF6,
0002,
0003,
000F,
FFFB,
0009,
0004,
FFFE,
FFEA,
FFEC,
0000,
0005,
000F,
FFFC,
FFFE,
FFF8,
000A,
FFF8,
FFF9,
FFE5,
0013,
000E,
FFF4,
000B,
FFFC,
FFF7,
FFF9,
0000,
0001,
FFF3,
FFFD,
0000,
FFFF,
FFF4,
000A,
0003,
FFF8,
0011,
FFFE,
0001,
0032,
0007,
000B,
FFF1,
0003,
0000,
FFE3,
0000,
0006,
FFF1,
000C,
FFF2,
0001,
0003,
FFF4,
FFE7,
FFFC,
000A,
FFF6,
0003,
0008,
0001,
FFFC,
FFE2,
0003,
0011,
FFFE,
FFF8,
0002,
FFFA,
0005,
0005,
0002,
0002,
0005,
FFF4,
FFF5,
FFF1,
0004,
FFED,
000D,
0007,
FFFC,
0004,
FFF2,
0018,
0008,
FFFE,
FFFB,
000C,
0002,
0002,
FFF9,
FFF3,
0003,
FFFE,
FFFD,
0000,
FFF2,
FFFD,
0005,
FFFB,
FFEE,
FFE5,
FFFF,
0010,
0005,
000B,
FFFF,
FFFC,
FFFB,
FFF1,
FFEE,
FFF8,
FFF5,
FFDE,
0003,
FFEF,
FFF4,
000E,
000E,
FFF6,
FFFE,
FFFA,
0005,
0015,
0024,
0004,
0002,
0013,
FFE5,
0006,
FFF1,
FFFE,
FFFB,
0006,
0008,
000D,
FFFA,
0000,
FFFE,
0006,
000E,
FFF1,
FFF9,
FFF5,
0004,
000A,
0002,
FFF4,
0008,
FFF9,
0004,
0010,
FFF8,
0008,
000B,
0009,
001C,
0011,
0002,
0005,
000C,
0008,
0009,
FFFF,
0000,
FFFE,
0002,
000A,
0001,
0003,
FFEE,
FFEE,
FFF4,
000C,
FFF3,
FFF6,
FFF9,
0005,
FFFC,
000C,
001A,
FFE9,
FFE7,
FFF3,
0016,
000E,
FFF7,
0026,
FFEA,
000C,
FFFA,
FFF7,
0010,
FFF6,
FFEF,
0005,
FFF3,
FFFA,
FFF3,
FFFA,
FFF6,
FFFF,
FFFB,
0006,
0004,
0008,
0015,
0019,
FFFD,
FFF7,
0000,
FFEE,
000E,
0003,
FFF6,
0001,
000B,
0000,
FFEA,
FFF6,
FFFF,
0005,
000A,
001B,
FFED,
FFFD,
FFED,
FFF6,
000B,
FFEC,
0005,
FFF7,
FFF7,
FFFF,
0005,
0003,
0010,
FFED,
0016,
0004,
FFE7,
0010,
FFF0,
0011,
0004,
000C,
000C,
0014,
FFFA,
FFFB,
FFFF,
FFFD,
FFF9,
FFFE,
FFED,
000B,
FFF9,
0005,
FFFF,
0000,
0002,
FFEE,
FFF6,
0012,
FFFF,
0006,
FFFB,
0019,
0005,
FFF4,
0004,
0004,
0010,
001B,
0006,
0006,
FFF8,
FFF5,
FFF6,
FFF8,
0004,
0010,
000A,
000B,
001D,
FFFC,
000D,
0005,
FFF8,
FFEF,
FFFD,
0003,
0006,
000D,
0002,
FFEB,
FFF6,
FFED,
000D,
FFFC,
0010,
0009,
FFFE,
0008,
0009,
FFFC,
FFFE,
0017,
FFEC,
0000,
0003,
FFF8,
0003,
0000,
0004,
FFFE,
0009,
FFDC,
FFF1,
0010,
FFF7,
0012,
FFFD,
000F,
FFF8,
0005,
FFEC,
0012,
0005,
FFEF,
FFED,
0009,
FFFA,
0001,
FFFD,
0002,
FFFE,
0005,
FFF8,
0006,
FFF1,
FFF4,
FFF6,
0007,
0013,
FFFE,
FFF8,
0003,
000A,
0007,
FFFC,
FFF8,
FFF2,
000A,
000E,
FFF7,
0005,
FFF5,
0000,
FFF3,
0002,
FFFF,
0009,
FFFB,
0028,
FFFB,
0004,
FFF8,
0001,
FFFB,
000D,
FFFC,
0008,
FFF5,
FFFB,
000B,
0010,
FFFC,
0006,
FFFE,
000E,
0002,
FFFD,
FFFE,
0001,
0013,
0002,
FFF5,
FFEA,
FFF8,
FFF9,
FFF9,
FFF7,
FFFE,
0013,
FFFF,
0006,
0001,
FFFE,
0003,
FFFF,
FFF3,
0006,
0001,
FFFC,
000E,
FFEF,
0009,
0003,
FFED,
0008,
FFFA,
0012,
0001,
FFF8,
FFEA,
0002,
0004,
FFF9,
FFF0,
0015,
0006,
0005,
FFF4,
001E,
0003,
FFF6,
0006,
000C,
0018,
0006,
000F,
0002,
0001,
000B,
0005,
0017,
FFED,
0001,
000A,
0008,
FFF2,
0004,
000A,
FFF7,
FFF1,
000C,
FFFE,
FFFA,
FFF2,
FFF2,
FFF8,
FFFF,
FFF6,
FFFB,
FFFB,
FFFC,
0004,
0002,
FFFB,
000C,
001B,
FFF5,
0006,
FFEF,
FFF3,
FFF0,
FFDC,
FFE9,
FFFC,
0003,
0010,
FFFC,
0003,
FFF4,
000A,
FFFB,
0010,
000D,
FFF0,
0001,
FFFF,
000D,
0001,
000E,
FFF5,
FFF7,
FFFB,
0007,
0011,
FFF7,
FFFB,
FFF3,
FFF9,
0004,
FFFD,
000E,
FFD9,
0001,
000E,
FFFF,
FFF4,
000F,
0003,
0013,
0003,
FFFE,
FFFD,
0009,
000B,
FFF2,
FFEB,
0006,
0012,
0012,
0005,
FFF9,
0008,
FFF7,
FFF6,
0011,
0005,
0001,
0008,
0021,
0005,
000F,
FFF1,
FFF9,
0009,
0001,
0006,
FFF9,
FFF4,
0008,
0000,
FFEF,
FFF4,
FFF9,
FFFD,
0006,
0009,
FFFA,
FFFB,
0019,
000D,
FFFD,
0007,
000E,
0005,
FFEE,
000B,
FFFC,
FFF8,
0007,
FFF8,
0004,
FFF5,
0002,
0007,
FFFA,
FFFA,
0005,
0013,
FFFD,
0010,
0004,
FFF9,
FFFD,
0005,
FFF8,
0008,
0015,
0014,
FFFC,
FFFE,
FFF9,
000A,
0005,
0015,
0001,
0005,
FFF7,
FFF2,
0008,
0005,
FFFC,
FFF8,
0002,
FFEB,
FFF6,
0004,
0000,
0006,
0028,
0009,
FFEF,
0006,
0013,
0001,
FFEE,
0003,
FFFC,
FFF3,
FFF3,
FFFF,
0000,
FFF6,
FFDF,
001B,
FFFF,
0009,
0006,
000A,
FFF9,
FFF7,
FFF2,
0015,
FFFF,
FFFD,
0007,
FFF7,
000B,
FFF8,
FFF8,
000E,
0010,
0006,
FFF9,
FFE4,
000E,
FFF3,
0001,
0013,
FFFC,
0008,
FFFA,
0004,
FFFB,
000D,
0000,
FFF0,
0007,
0012,
0007,
0006,
FFEA,
0018,
0008,
FFF4,
FFF0,
FFF8,
0000,
FFFA,
0007,
000A,
0004,
FFDF,
0004,
FFED,
0003,
FFF2,
FFFE,
FFF5,
000D,
FFF8,
000A,
0005,
0002,
FFF8,
0008,
000C,
FFF5,
FFF0,
0004,
FFF9,
FFF7,
FFFA,
FFFB,
0001,
FFF9,
0005,
FFFC,
0006,
FFFA,
FFF5,
0014,
001B,
0002,
FFEE,
0008,
0007,
FFF9,
0006,
0021,
FFF3,
FFF8,
0013,
0007,
FFF0,
0007,
FFF1,
FFFD,
000F,
0007,
FFE7,
0005,
0015,
FFFD,
FFF5,
FFEC,
FFFB,
FFFF,
FFFD,
FFF7,
FFFD,
0004,
0008,
FFF5,
FFFB,
000B,
0005,
0009,
FFF2,
FFF7,
FFFB,
0019,
FFF7,
0002,
000A,
000A,
FFF9,
0006,
FFFC,
0003,
000A,
FFF8,
FFF4,
FFF3,
FFFA,
001B,
0005,
0000,
FFFE,
0010,
0007,
FFF3,
0009,
0005,
FFFF,
0000,
FFF7,
0002,
001E,
0001,
FFF5,
FFFC,
0003,
FFFE,
0004,
FFF5,
FFFF,
000B,
FFFC,
FFF2,
FFF9,
FFFE,
0002,
FFFE,
0006,
FFF6,
0010,
000E,
FFFD,
0000,
0002,
0011,
FFFC,
000E,
0006,
FFF5,
0006,
000F,
FFFE,
0001,
0011,
0006,
0009,
FFFF,
0000,
FFFA,
FFF2,
000F,
000A,
FFFD,
FFFE,
000D,
0007,
0003,
FFF1,
FFFF,
0006,
FFF9,
0008,
0014,
FFF9,
0026,
0010,
FFFA,
0003,
0010,
FFF4,
FFE8,
0000,
FFFF,
0001,
000C,
FFFC,
0000,
0002,
FFF4,
FFF7,
0000,
FFF4,
0001,
FFF9,
FFF5,
FFF5,
0003,
FFEC,
FFF1,
FFFF,
FFF9,
FFF7,
FFE1,
FFFF,
FFFD,
0005,
0009,
FFFE,
0018,
0009,
FFF4,
0001,
0008,
FFF5,
0000,
FFF5,
0005,
FFEF,
0009,
0003,
FFF2,
0008,
FFEE,
FFFB,
001E,
FFFD,
0006,
0007,
FFEC,
0003,
FFEF,
FFFB,
0004,
001B,
FFEC,
0005,
0003,
FFF8,
0000,
0006,
FFFA,
FFFE,
FFFF,
0005,
FFFF,
FFF8,
FFFB,
0009,
0000,
0006,
0005,
000C,
000C,
FFF9,
000B,
FFF4,
FFF6,
FFF5,
000D,
FFFC,
001D,
FFFE,
FFF0,
000F,
FFF5,
FFFF,
0004,
FFFC,
FFF9,
0003,
FFFF,
0001,
FFFF,
0000,
FFF5,
001A,
0002,
FFFC,
FFEF,
0001,
0003,
FFFE,
0003,
0007,
FFFD,
000C,
0009,
FFF1,
000E,
0009,
0015,
FFF4,
0005,
FFFF,
0000,
000E,
0016,
000C,
FFF9,
0001,
FFEB,
0013,
0006,
000B,
FFE9,
FFFE,
0006,
FFFA,
0000,
FFF2,
0000,
0010,
FFF0,
0004,
FFF7,
FFFC,
0004,
0003,
FFFF,
0004,
FFF1,
0007,
FFFE,
000E,
0000,
FFFF,
FFE4,
0009,
0007,
0002,
FFF4,
000B,
FFFD,
FFFA,
0006,
0007,
0004,
0008,
FFFF,
FFF8,
000A,
FFFB,
FFFE,
FFEE,
000F,
0003,
000E,
FFF7,
000C,
FFF2,
FFF8,
FFFE,
0008,
FFFC,
FFF2,
FFFA,
FFFC,
0000,
FFF3,
0009,
FFF7,
0004,
0005,
FFF5,
0001,
0000,
FFFD,
0009,
0006,
FFD5,
FFE3,
000F,
FFFF,
0009,
FFFD,
FFF2,
FFE7,
0020,
0003,
0000,
FFFC,
000A,
FFF9,
FFFE,
FFF0,
0009,
FFF3,
0002,
0010,
000A,
FFEF,
0002,
FFF2,
0001,
FFF5,
FFFD,
000A,
FFF6,
0001,
0004,
FFFA,
0003,
FFF9,
FFFC,
0004,
FFF8,
FFF3,
0008,
FFF7,
FFFD,
FFFE,
FFFD,
0002,
FFFB,
0001,
FFFE,
FFFD,
000B,
000C,
0015,
0008,
FFFE,
FFDF,
0014,
000C,
FFFF,
FFEB,
FFFB,
0006,
0002,
0010,
FFFB,
FFF7,
FFFC,
FFF4,
0008,
FFE6,
FFF9,
FFF3,
FFEA,
FFF4,
0007,
FFF7,
FFFC,
FFFB,
000B,
FFFB,
0000,
0007,
0008,
FFF0,
0004,
FFFD,
FFE3,
0011,
0006,
000E,
0002,
FFF1,
000C,
0006,
FFF7,
0009,
FFF2,
0005,
FFFF,
0003,
FFFD,
FFFF,
0006,
0006,
FFFB,
000F,
0003,
0003,
000C,
0001,
001A,
FFFA,
000A,
0019,
000E,
FFF2,
FFF9,
FFFB,
FFFC,
0001,
0001,
FFF7,
FFFF,
0020,
0010,
000D,
0004,
FFED,
0001,
0008,
FFFD,
0004,
FFFE,
0002,
0002,
0004,
FFFF,
000A,
0000,
0006,
0012,
0010,
0005,
0009,
0008,
FFFD,
0000,
FFF4,
FFF3,
FFF1,
FFFB,
FFF5,
0004,
FFFA,
FFFD,
FFF2,
0016,
000B,
000C,
FFF6,
FFF2,
FFE6,
0003,
FFFB,
FFEF,
FFFA,
FFEB,
0004,
0008,
FFFD,
001B,
0004,
0006,
FFEB,
FFF6,
0006,
FFF8,
000A,
0008,
FFF1,
000B,
0000,
FFFE,
FFFF,
FFEC,
0009,
000A,
0002,
0007,
FFF3,
FFFF,
FFF0,
000D,
FFE1,
FFFB,
FFFB,
FFFA,
0004,
FFF6,
FFFF,
FFFE,
0001,
FFF5,
0001,
0000,
000B,
FFE6,
FFFE,
FFF6,
000C,
FFF9,
FFF5,
0000,
FFFA,
FFF9,
0004,
FFF3,
FFFE,
FFFA,
FFFB,
0011,
0002,
0008,
FFF8,
0004,
FFFA,
FFF3,
FFF8,
FFF9,
0006,
0005,
0001,
0001,
0003,
FFE2,
FFF6,
FFEE,
FFFD,
0009,
FFF4,
000B,
FFEE,
FFF2,
0006,
FFF7,
FFCE,
0002,
FFF7,
FFFD,
0006,
FFFC,
FFFE,
FFE7,
FFFA,
FFF0,
FFF0,
FFE8,
FFFE,
0002,
FFFF,
FFE3,
FFFA,
FFFC,
FFF5,
FFEA,
FFFF,
FFE2,
FFF6,
FFFF,
0000,
FFF4,
FFF9,
FFFD,
0000,
FFF4,
0001,
0004,
FFF6,
FFF9,
000B,
0015,
0001,
000C,
0019,
0008,
0002,
0008,
FFF4,
FFF1,
FFE7,
0010,
FFF8,
000C,
0019,
0006,
000F,
FFF9,
FFFF,
000D,
FFF6,
0010,
FFFE,
FFFA,
FFF3,
0005,
0007,
FFFF,
0002,
0008,
FFF2,
0011,
FFF8,
0001,
000B,
FFFF,
000A,
0009,
0009,
FFF1,
FFF5,
0000,
000B,
0001,
0000,
0003,
FFFA,
000B,
000B,
FFF9,
FFF5,
FFE9,
FFFD,
0002,
0003,
0018,
0003,
FFFE,
FFF9,
0005,
FFE4,
0007,
FFF3,
0009,
FFF7,
0001,
000D,
0001,
FFF3,
0000,
0005,
FFFF,
FFFE,
0000,
0002,
0008,
0003,
0000,
0009,
FFED,
FFFC,
0002,
FFFE,
0002,
000A,
0003,
0009,
0000,
FFF8,
0005,
0013,
FFFE,
FFFE,
FFF3,
FFFF,
000A,
FFEC,
FFFC,
FFF5,
FFE7,
0008,
FFFE,
0009,
0008,
0003,
000D,
FFF9,
0006,
FFFE,
000B,
0000,
0000,
0000,
000B,
FFFD,
FFEF,
FFFF,
FFFF,
0004,
FFFC,
002B,
0001,
FFF7,
000B,
FFFD,
FFFC,
0008,
FFF1,
0002,
0008,
0001,
FFFB,
0009,
0000,
0000,
000B,
FFE9,
0007,
FFED,
FFF7,
000B,
0002,
0000,
0001,
0007,
FFFD,
0005,
0024,
FFF8,
FFFD,
0000,
FFF6,
0006,
000D,
0002,
0006,
FFF3,
0016,
0005,
0000,
001D,
0001,
0002,
0011,
0018,
FFE1,
FFF7,
FFFE,
0002,
0000,
FFFD,
FFFC,
0000,
0001,
FFE9,
FFF8,
FFFF,
001D,
FFF8,
0006,
FFFB,
0009,
FFF9,
0004,
FFEE,
FFFD,
FFFC,
0007,
FFFC,
FFFD,
0005,
000E,
000B,
000B,
0008,
FFF9,
0006,
FFFE,
FFDD,
FFFF,
000B,
0005,
0013,
000B,
FFF7,
0009,
0002,
FFD7,
0001,
FFFE,
0011,
0007,
FFDB,
FFD9,
000A,
0003,
FFD9,
0006,
000C,
FFFC,
FFFA,
0009,
0001,
0001,
FFED,
FFFD,
0001,
0008,
0001,
FFFF,
0004,
FFD8,
FFFF,
FFF8,
FFFD,
0008,
FFFB,
0008,
000C,
000F,
0001,
FFEE,
0002,
FFFA,
0001,
FFF8,
0003,
0002,
FFF1,
0001,
FFF9,
0000,
0001,
0007,
FFF0,
0008,
000B,
FFF4,
FFFC,
0005,
FFFE,
000D,
FFFB,
0002,
FFF6,
000D,
0031,
0002,
0000,
0006,
0002,
0002,
0002,
000D,
000B,
0010,
000B,
000F,
FFF2,
0005,
FFFD,
0001,
0005,
FFFD,
000A,
0002,
0003,
0003,
0004,
0001,
FFFC,
FFFA,
0020,
0008,
0004,
FFF8,
001F,
FFFF,
FFEB,
FFEA,
0006,
0003,
0008,
0000,
0004,
0001,
000F,
0001,
0006,
0012,
FFFD,
0011,
0001,
FFF9,
0000,
FFFC,
0002,
FFFD,
0001,
FFF5,
FFFA,
FFF1,
0003,
0008,
0011,
FFFD,
000A,
000A,
000B,
0004,
0008,
0008,
FFF1,
0006,
0001,
0003,
FFF6,
FFFD,
0009,
FFFD,
0006,
FFF9,
FFED,
FFF9,
FFF8,
0008,
001A,
000C,
000E,
0007,
000A,
0003,
000A,
FFF8,
0008,
FFF2,
FFF7,
0006,
FFFF,
FFF7,
0006,
FFFD,
FFFE,
0002,
0006,
001A,
0008,
001A,
000B,
FFF6,
0004,
0008,
0004,
0000,
000B,
FFF0,
0015,
0000,
0034,
FFFC,
0010,
FFF1,
FFF9,
000C,
000F,
000C,
0005,
0005,
0000,
0006,
0007,
0007,
000C,
FFFB,
0008,
0000,
0012,
0009,
FFED,
FFFE,
0002,
000A,
0002,
0003,
FFFD,
0026,
0000,
0020,
0001,
0001,
000A,
FFDA,
0004,
0003,
FFFB,
FFE1,
FFFE,
FFF1,
FFF0,
0003,
0005,
000D,
FFF4,
0000,
0001,
FFFC,
0014,
000D,
FFFD,
0002,
FFDE,
0012,
0009,
FFEB,
0001,
FFF8,
0014,
000A,
0007,
FFE4,
0006,
0007,
FFFE,
FFFD,
0009,
001E,
FFE1,
FFFE,
0015,
0012,
000E,
FFFF,
0014,
FFFF,
FFF8,
FFFB,
0002,
FFFC,
FFFD,
FFF5,
000A,
FFF0,
0002,
0005,
0005,
0008,
0005,
FFF9,
0008,
0003,
0011,
0006,
0003,
FFFE,
0000,
000D,
FFFD,
0001,
FFFF,
0000,
0000,
0003,
FFFF,
FFF7,
000E,
0005,
FFF1,
FFF6,
FFF7,
0001,
000F,
FFFA,
0023,
000A,
0013,
000D,
FFFC,
FFF6,
0003,
FFF7,
FFF6,
000E,
0009,
0005,
FFFF,
FFFA,
FFFD,
0008,
0002,
FFFD,
0014,
0002,
FFFA,
FFF4,
0007,
000E,
0010,
FFFE,
0009,
FFFF,
0005,
FFFC,
FFF3,
FFFE,
FFFD,
001C,
0003,
0001,
0002,
0013,
FFF5,
FFF2,
FFD9,
FFF2,
0016,
FFF5,
000B,
FFF9,
0005,
0006,
0004,
FFFA,
FFCD,
0007,
FFFE,
0005,
0012,
0004,
0012,
FFF7,
FFFA,
FFF0,
FFFC,
0000,
FFFA,
000A,
0005,
FFFF,
FFF4,
0006,
0004,
FFFC,
FFEE,
FFFE,
FFF5,
FFFE,
0005,
FFF6,
FFFA,
0009,
0005,
FFEE,
0002,
0004,
FFFC,
000A,
FFF0,
FFFA,
FFF8,
FFFB,
002A,
0001,
0004,
0000,
000F,
0000,
0005,
001D,
0005,
000B,
000A,
FFF6,
0002,
0006,
FFFE,
0001,
FFF1,
0004,
FFF7,
001D,
000D,
0001,
FFF7,
0002,
FFFF,
FFF1,
FFF2,
0005,
0000,
0005,
0002,
0003,
FFF9,
FFFD,
0007,
000C,
001F,
FFF2,
0000,
0010,
FFFA,
000D,
0013,
0006,
0002,
FFFD,
0005,
FFEC,
FFFF,
0001,
FFFA,
0002,
0008,
FFFA,
FFEE,
FFFC,
FFFB,
0004,
0004,
FFFC,
FFFE,
FFF6,
FFFA,
FFEB,
FFF8,
0002,
FFFE,
0020,
FFF0,
000C,
FFE6,
000C,
FFF0,
FFE7,
0002,
FFF7,
0010,
FFFF,
0010,
FFF9,
FFFA,
FFF6,
0006,
FFFB,
FFFB,
FFF7,
FFE3,
FFEF,
FFF8,
0001,
FFF9,
FFFC,
0005,
0003,
0003,
FFF5,
000A,
0014,
002B,
000D,
FFF6,
0013,
0020,
0012,
0002,
0006,
0005,
FFF1,
FFEB,
000A,
FFF7,
0007,
0004,
000A,
000D,
0019,
0005,
000A,
0005,
FFF0,
0006,
FFF9,
0008,
000A,
0024,
0009,
0005,
FFF4,
FFFF,
001D,
FFF2,
FFFE,
0004,
FFFB,
FFEA,
0005,
FFFD,
FFEB,
0005,
FFFB,
0009,
0018,
FFF9,
FFFF,
000A,
FFED,
0013,
FFF0,
000B,
FFFE,
FFF4,
0004,
FFFD,
0003,
FFEB,
FFFC,
0003,
0009,
0004,
0010,
FFF7,
0026,
FFFE,
FFFC,
000B,
0001,
0006,
0018,
FFF6,
FFDE,
001F,
000C,
FFF6,
FFE9,
0005,
000C,
0003,
000E,
FFF2,
FFF7,
0005,
0002,
FFFB,
0004,
000A,
FFFF,
0014,
0021,
0007,
0006,
FFF3,
FFFC,
FFF6,
FFE4,
FFF9,
0004,
0010,
0003,
0018,
0005,
0000,
0000,
0010,
FFFD,
FFFF,
0006,
0001,
0008,
FFEF,
0000,
FFFE,
0003,
FFF6,
0004,
0002,
0006,
FFFF,
000C,
FFF2,
0002,
000D,
0004,
0012,
FFFC,
0003,
000E,
0004,
0002,
0000,
FFE7,
0001,
0007,
0000,
0001,
FFF7,
FFF4,
000D,
FFF8,
0008,
FFFD,
FFF7,
FFFA,
FFFC,
FFFC,
FFFF,
FFFF,
FFF2,
0008,
FFFF,
0005,
FFF7,
FFFB,
0003,
FFF6,
000B,
000C,
0008,
FFF6,
0000,
FFF7,
FFE9,
0003,
FFF9,
0002,
0005,
FFFB,
0003,
0007,
FFFB,
FFF3,
FFFD,
FFF2,
FFFC,
FFF4,
FFFB,
FFFD,
000A,
FFFE,
0016,
FFF8,
FFFD,
0002,
FFF6,
FFFD,
FFFF,
FFFA,
FFFC,
0003,
0008,
FFFD,
0000,
0001,
FFEF,
FFFA,
0009,
FFF8,
FFFE,
0002,
FFF7,
FFEC,
FFFA,
FFFA,
FFFE,
FFFF,
FFFF,
0011,
0005,
FFFA,
FFFD,
0003,
0002,
FFF3,
000E,
000A,
000E,
000C,
000D,
0000,
FFFD,
0001,
0009,
FFF6,
FFFB,
FFF8,
0004,
0009,
FFFF,
000C,
0005,
FFF9,
FFF9,
FFFF,
FFF4,
0000,
0001,
0010,
0005,
0001,
0012,
FFFF,
0003,
0004,
FFF9,
000E,
0004,
FFFA,
FFFA,
000B,
0006,
FFF5,
0015,
FFE5,
0004,
0010,
0018,
0008,
0001,
FFF8,
FFFB,
0009,
0014,
0002,
FFEC,
0008,
0009,
000F,
0001,
0011,
000F,
FFFD,
0003,
0009,
FFEE,
FFF5,
FFFA,
0006,
FFF8,
000D,
0000,
0011,
FFEA,
FFFA,
0005,
0000,
FFF8,
FFFC,
FFED,
0004,
FFE5,
000F,
FFF4,
0001,
FFE9,
FFF9,
FFFB,
0006,
000A,
FFF8,
0002,
FFFD,
FFF5,
0003,
0005,
0003,
FFF7,
FFF8,
FFFE,
001E,
FFF5,
0002,
0007,
FFFD,
0000,
000B,
FFF4,
000F,
FFFF,
0008,
0000,
0001,
FFFC,
000A,
0004,
FFFC,
000C,
0003,
0001,
0003,
FFF7,
FFF7,
0005,
0000,
FFED,
FFF6,
FFFC,
FFF5,
FFFF,
FFF6,
000F,
FFFA,
FFFD,
0001,
FFF5,
FFF1,
FFFB,
0005,
FFFB,
0005,
0005,
FFF2,
FFFA,
FFFF,
FFF0,
0002,
0008,
FFFA,
FFF6,
FFF5,
FFF9,
0005,
0002,
FFF2,
FFF6,
0001,
FFFC,
FFFF,
FFF8,
FFFF,
0013,
000F,
FFF1,
0004,
0000,
000B,
0001,
FFF1,
FFF9,
FFF6,
000B,
FFFF,
FFE4,
FFF4,
0004,
FFF8,
0007,
000C,
0001,
0008,
FFEE,
0017,
FFEE,
FFFA,
0002,
000C,
FFF8,
FFF9,
0000,
000B,
FFFF,
FFF6,
FFF7,
0004,
FFFD,
FFFC,
0009,
000F,
000D,
FFFC,
0005,
0000,
FFFC,
0000,
0014,
000B,
0005,
000B,
FFFF,
0006,
0002,
FFF9,
0003,
000C,
FFFB,
FFF9,
000B,
FFFC,
FFFE,
FFF8,
0009,
FFFF,
FFFC,
0004,
FFFE,
FFFC,
0004,
FFF9,
FFFD,
FFFF,
FFF6,
0000,
0001,
0007,
FFFE,
0000,
FFF6,
000F,
FFFC,
FFE6,
FFFF,
FFFF,
0007,
FFFD,
0000,
FFFC,
0008,
FFFE,
000C,
FFFD,
FFF6,
0007,
FFFE,
001A,
FFFC,
FFFF,
FFFA,
FFEF,
0007,
0005,
FFF6,
FFE2,
FFFD,
0013,
FFFA,
FFF5,
FFF9,
FFFD,
000D,
000D,
FFF3,
0002,
0006,
FFF6,
FFFE,
FFFE,
0010,
FFFF,
FFFE,
FFF9,
0003,
FFFA,
0009,
0001,
0001,
0003,
FFFB,
000A,
FFFB,
000F,
000A,
0008,
0003,
0006,
0008,
FFFE,
FFF6,
FFF5,
0002,
0003,
0008,
FFFD,
000A,
FFFD,
FFFA,
0000,
0006,
0000,
0005,
0013,
FFF4,
0012,
FFFD,
0012,
0002,
FFF4,
0009,
FFF5,
FFEF,
FFF8,
FFF3,
FFE3,
FFFE,
0005,
FFFD,
000F,
0000,
0000,
0006,
0001,
FFF6,
FFF3,
FFF9,
FFFD,
0011,
0012,
000A,
FFF8,
FFEA,
FFFA,
FFFF,
FFFE,
0003,
0005,
FFF8,
0006,
0000,
0002,
0001,
FFF1,
0002,
0000,
0003,
FFFC,
FFFE,
0001,
0010,
FFF8,
FFFE,
000B,
0003,
0009,
FFF0,
0001,
FFF3,
0005,
0000,
0007,
FFFF,
0006,
FFF1,
0002,
FFFF,
FFFB,
FFFB,
0002,
FFFE,
FFFE,
0009,
FFFF,
0005,
FFFC,
0006,
000E,
FFFA,
0006,
FFFD,
FFFF,
0008,
FFFF,
FFFB,
0005,
FFFF,
0004,
FFF6,
FFFB,
0003,
0004,
0000,
FFF4,
0013,
0003,
0006,
FFFA,
0004,
FFEF,
FFFE,
FFFC,
000C,
000A,
FFFD,
0009,
0004,
0001,
FFFA,
FFFD,
0003,
FFF9,
000B,
FFFA,
0008,
0001,
0009,
0000,
0005,
FFFD,
FFF7,
0003,
FFFB,
0006,
FFF8,
0006,
FFFE,
0005,
0005,
FFEE,
0003,
000B,
0004,
FFFC,
FFFF,
0004,
000D,
000B,
FFF7,
FFFD,
FFE8,
FFF6,
0009,
FFFD,
0003,
0003,
FFFA,
FFF8,
FFFE,
FFFB,
0006,
FFF6,
0004,
0007,
0012,
FFFD,
000E,
0000,
0003,
FFFD,
FFFE,
FFEF,
0007,
FFFF,
FFF3,
FFF1,
FFFC,
FFF6,
0004,
0000,
0005,
0008,
0001,
0007,
0008,
0003,
FFFA,
FFE9,
FFF2,
FFFB,
0008,
0009,
FFF7,
000D,
0009,
0007,
0002,
000A,
FFF9,
FFF2,
0002,
FFFF,
FFFD,
0004,
0001,
FFFA,
FFFB,
FFF5,
FFFB,
0006,
0005,
0008,
FFFE,
0013,
FFF6,
FFF9,
FFFC,
000A,
0015,
0003,
0001,
0004,
000B,
FFFC,
FFFD,
FFF8,
FFFF,
0013,
000F,
0009,
0026,
0009,
FFF6,
FFF2,
FFF7,
0001,
FFE1,
000F,
0005,
FFF9,
FFF3,
FFFB,
0014,
FFFB,
000A,
FFF9,
0007,
0003,
0003,
0002,
0009,
0003,
FFFC,
FFF5,
FFFD,
000A,
0007,
0001,
FFFC,
0007,
FFFD,
0011,
0001,
0001,
0002,
0008,
FFE7,
000D,
FFFD,
FFFB,
FFFE,
FFFE,
0020,
0006,
000A,
FFFE,
FFFC,
FFFA,
FFFF,
FFF1,
FFF9,
0014,
FFFC,
0005,
FFFF,
FFF8,
0005,
FFFE,
0003,
0008,
000D,
000F,
000F,
FFF3,
FFED,
0007,
000D,
0008,
FFFF,
000B,
0004,
FFF3,
FFFA,
FFFC,
0007,
FFF4,
0007,
0001,
0010,
0013,
0003,
FFF3,
0001,
0013,
FFFB,
0004,
FFEF,
0000,
FFFA,
0003,
000D,
FFFE,
FFFB,
0000,
0000,
0009,
FFFA,
0014,
FFFF,
FFF2,
0005,
0005,
0007,
0000,
0005,
FFF9,
0005,
0004,
FFFF,
FFEF,
0003,
0008,
0000,
FFFE,
FFFE,
FFF4,
FFF7,
000D,
0004,
FFEE,
0002,
000A,
FFFC,
0002,
FFF8,
FFF5,
0000,
FFFF,
FFFD,
FFFB,
000C,
0000,
0004,
0005,
001C,
FFF4,
0010,
FFFD,
FFFE,
FFF0,
0003,
FFFF,
0016,
0003,
FFF7,
0002,
FFFD,
FFFD,
FFEF,
000D,
0008,
FFF9,
FFFB,
FFF8,
FFFD,
FFF6,
FFE5,
000A,
FFE9,
FFF8,
0009,
0009,
0009,
0009,
0003,
0007,
FFFA,
000C,
FFF7,
FFF8,
FFFA,
FFF5,
FFF4,
0001,
FFF7,
FFF5,
000D,
0002,
0001,
0006,
FFF2,
000D,
0000,
0000,
0008,
FFFA,
FFF7,
0018,
0000,
FFFA,
FFEC,
000A,
FFF1,
000A,
FFF5,
FFFB,
0000,
0007,
0009,
FFFB,
0007,
FFE2,
FFF6,
0002,
FFF7,
0012,
000C,
0013,
0001,
FFFF,
FFFC,
0003,
0012,
FFFD,
0005,
0003,
FFFC,
0005,
000A,
FFEA,
FFFB,
0001,
FFFC,
FFF5,
0006,
000B,
0006,
0001,
FFEC,
FFFC,
FFF5,
FFFF,
0007,
FFF9,
0008,
FFFF,
FFF6,
0005,
0005,
0006,
0005,
0004,
0001,
0008,
FFFB,
FFFA,
FFF2,
FFF9,
0000,
FFF9,
0003,
FFFD,
FFFF,
0016,
FFFF,
FFFA,
0003,
0002,
FFF5,
000C,
FFEF,
FFFA,
FFFE,
0000,
0012,
FFF8,
0001,
000E,
000F,
FFEF,
0000,
FFF1,
FFFB,
FFEB,
0008,
FFEF,
0007,
0004,
0008,
FFF4,
000E,
0007,
FFEC,
0027,
0005,
FFF1,
0031,
0027,
FFF1,
FFFE,
FFF4,
0005,
0001,
000A,
FFFC,
0006,
FFE8,
FFED,
FFF8,
0000,
0008,
0006,
0006,
FFFC,
FFFD,
FFF1,
0008,
FFF0,
FFF2,
FFFB,
0009,
0011,
0002,
0008,
0006,
FFF7,
0010,
0002,
FFEE,
0004,
0004,
0012,
0003,
FFF6,
FFFE,
FFFF,
FFFE,
0003,
FFF7,
FFE8,
0005,
FFF7,
FFEE,
0001,
FFED,
0001,
FFF8,
000C,
FFFB,
FFF2,
FFFB,
FFFE,
0005,
FFF7,
0007,
000C,
FFFB,
FFF2,
0011,
FFFB,
FFDF,
FFED,
FFFE,
0000,
0004,
0003,
FFF5,
0000,
FFFF,
0001,
FFEC,
0006,
0005,
FFF5,
FFFF,
002A,
0005,
0000,
0010,
FFF8,
FFFF,
0004,
0004,
0003,
FFFC,
0002,
FFF9,
FFFF,
0003,
FFE2,
FFFB,
FFFF,
0006,
FFFB,
FFFF,
0000,
0004,
0000,
001F,
FFFC,
FFE5,
FFE6,
FFFE,
FFFB,
0004,
0008,
0004,
000E,
0005,
000A,
0001,
0008,
000B,
FFFB,
0018,
FFFB,
FFF9,
0004,
FFF3,
FFF9,
FFFF,
FFF6,
0002,
0002,
000B,
000A,
000C,
0005,
FFF4,
FFEF,
FFFB,
0010,
FFE9,
FFF7,
000E,
000A,
0006,
FFFD,
0000,
FFFD,
FFF8,
FFEF,
000E,
FFE1,
0019,
000B,
FFFD,
FFFB,
000D,
0014,
0002,
FFF6,
FFF7,
FFE7,
0001,
0019,
0011,
FFFD,
0006,
0004,
FFFA,
0000,
FFF2,
0004,
FFFA,
0004,
0004,
0003,
0001,
0005,
0003,
FFFA,
0005,
FFF0,
FFE9,
0002,
FFEF,
FFFA,
FFF7,
FFFD,
0020,
0002,
FFFF,
FFE8,
FFF1,
000D,
0002,
FFF0,
FFFE,
0007,
0006,
FFF8,
0002,
0000,
FFFD,
FFF9,
0005,
0000,
FFFD,
0015,
0004,
FFFA,
000F,
0005,
0008,
0007,
FFFD,
0001,
FFF0,
FFFE,
0002,
0001,
FFF9,
0008,
FFF8,
0012,
0005,
FFF6,
FFFB,
0007,
0004,
FFFB,
0009,
0001,
FFF5,
FFFD,
FFFB,
FFFD,
FFF5,
FFFD,
0015,
0007,
0005,
FFFE,
0002,
FFF6,
FFD7,
0013,
FFFB,
FFFF,
0005,
FFEB,
FFED,
FFDA,
FFFE,
0001,
FFF2,
FFE6,
FFFC,
FFE8,
001A,
0002,
FFF1,
FFFE,
FFFE,
FFFD,
000A,
FFF4,
FFEE,
0006,
0004,
0016,
FFFC,
FFEE,
0006,
0008,
0003,
FFEB,
FFFC,
FFF9,
0003,
0006,
0005,
FFFA,
FFEF,
0002,
FFFF,
FFF2,
0013,
FFFD,
0009,
0004,
FFFE,
0006,
000B,
0005,
FFFF,
FFFB,
000A,
000F,
0001,
FFFB,
FFFF,
000E,
FFFC,
FFF5,
FFF5,
FFF9,
0002,
0016,
FFF3,
000B,
000F,
FFFB,
FFFF,
FFFD,
FFEC,
FFF8,
0001,
FFFD,
FFF7,
FFF5,
FFFE,
FFE8,
0000,
0016,
0009,
FFEF,
000C,
0003,
FFFC,
0006,
0006,
0000,
0002,
0005,
0003,
0003,
0005,
000A,
0001,
FFEA,
0018,
FFFE,
0009,
FFFD,
0018,
FFE7,
FFFD,
0003,
FFF7,
FFEC,
000E,
FFFF,
0007,
FFF7,
0002,
FFFC,
FFF0,
FFF3,
FFF5,
000B,
FFF9,
0009,
FFFE,
0005,
FFEF,
FFFF,
0000,
FFF8,
FFF9,
FFF2,
FFFB,
0007,
FFF2,
FFFC,
0003,
0004,
0006,
0008,
FFFB,
0000,
0007,
0014,
FFF9,
0005,
FFF4,
FFFE,
0011,
0003,
0016,
FFEE,
0008,
0000,
FFF1,
FFFA,
000B,
FFF6,
FFEA,
FFF6,
000C,
0001,
FFFE,
FFF4,
000D,
0000,
0002,
0007,
FFFD,
FFF7,
0001,
0000,
000A,
0018,
FFFE,
000A,
FFFE,
FFFA,
000C,
FFDD,
0003,
FFEB,
0010,
0008,
FFF7,
FFFF,
000D,
0006,
0005,
FFF9,
000F,
0009,
FFFC,
0006,
FFFF,
FFFF,
0004,
FFF4,
0005,
0005,
000E,
0005,
000B,
FFFB,
FFF4,
0001,
FFFC,
0015,
0001,
FFFA,
FFFD,
0001,
FFFA,
FFF6,
001F,
FFFD,
FFF7,
0007,
0023,
0006,
0001,
FFF3,
0008,
0009,
0009,
FFFD,
FFFB,
0005,
0008,
000C,
FFF9,
0008,
FFFA,
0000,
0008,
FFFC,
FFF7,
FFEB,
FFFD,
000A,
FFF9,
FFF2,
FFFF,
000E,
FFE9,
0004,
FFF6,
FFFA,
0010,
0025,
0013,
FFFB,
000D,
0003,
0001,
000F,
0009,
0000,
0010,
0003,
0004,
FFEF,
0000,
FFEB,
0002,
FFFF,
0009,
FFF4,
0004,
0020,
FFFB,
0001,
FFF8,
FFE2,
0003,
0002,
FFF7,
FFFD,
FFF4,
0013,
FFF2,
0004,
FFFF,
0001,
0008,
FFFD,
FFF7,
0006,
FFFA,
FFFB,
FFED,
000B,
0004,
0000,
0003,
FFF2,
FFFA,
000A,
0002,
FFF8,
0008,
0014,
FFFF,
0003,
0009,
0012,
FFE7,
0004,
0003,
0003,
0007,
FFFF,
FFF0,
FFFF,
000B,
FFFB,
FFFC,
000A,
0007,
FFF5,
FFFA,
FFFB,
FFFB,
001A,
0009,
FFC5,
FFFB,
FFF3,
0009,
0002,
FFFA,
FFFE,
FFFF,
0003,
0000,
FFFD,
FFF9,
000A,
FFFB,
FFFA,
FFFC,
FFFF,
0002,
0014,
FFF1,
FFF1,
0000,
000A,
0006,
000F,
FFF8,
FFEA,
FFE3,
0009,
FFF8,
FFFB,
FFFC,
0005,
0009,
FFF7,
0002,
FFEC,
0006,
0006,
0002,
0002,
0003,
FFEC,
FFFA,
FFEA,
FFFC,
0025,
0004,
001C,
000B,
FFFC,
FFF1,
FFFD,
0002,
FFF4,
0009,
FFF4,
000A,
FFF8,
0025,
FFF7,
0006,
FFFC,
0000,
FFFD,
FFEC,
0005,
0021,
FFFD,
FFFF,
0001,
000D,
0006,
0001,
0001,
0000,
FFF7,
0008,
FFFE,
FFFD,
002F,
000D,
0008,
000A,
000C,
000A,
FFFB,
0006,
000C,
FFFF,
000D,
FFF1,
FFF7,
FFF9,
0005,
0006,
000C,
FFFE,
000F,
FFFB,
0001,
0004,
FFFF,
FFEB,
000A,
0003,
0001,
0003,
FFFA,
0001,
FFFE,
000D,
000D,
FFFD,
0010,
FFF8,
0002,
FFF8,
FFF4,
0001,
000D,
0003,
FFFB,
FFE2,
0018,
FFFB,
0009,
0000,
0001,
FFEA,
FFF4,
0000,
FFFA,
0001,
FFF9,
0012,
FFF7,
0000,
000A,
FFFA,
FFF5,
0007,
FFF8,
0003,
0000,
FFFA,
FFFB,
FFF8,
0005,
000A,
FFED,
FFFB,
FFFC,
0008,
000B,
FFFC,
0001,
0000,
FFF9,
FFF5,
000E,
FFFF,
0000,
FFFD,
0007,
FFDE,
0004,
0004,
FFF7,
0011,
FFFF,
FFFE,
0002,
FFF4,
FFFC,
FFFB,
000D,
0001,
0000,
FFFF,
FFF5,
0008,
000B,
000C,
FFFE,
FFF9,
0002,
0002,
FFFE,
FFFC,
0003,
FFFC,
FFFE,
FFFA,
FFFA,
FFED,
FFFE,
FFF6,
0003,
FFFD,
FFFD,
FFF9,
000F,
0002,
FFFD,
FFF7,
0003,
FFFF,
FFF6,
FFFA,
0009,
FFF7,
0000,
0007,
0006,
0000,
0007,
FFFE,
FFFE,
FFFF,
FFFE,
FFFD,
FFF6,
FFFE,
FFFA,
0006,
FFFE,
FFF5,
0010,
FFF8,
FFFB,
0007,
0005,
0007,
0003,
FFFC,
FFF1,
FFFB,
FFF9,
0005,
FFF3,
FFFB,
FFF5,
0008,
0008,
FFF0,
FFFD,
FFFD,
0020,
FFFC,
000A,
0005,
000C,
FFFF,
FFFF,
FFFA,
0006,
0010,
0017,
FFFD,
0002,
FFFC,
FFFE,
0002,
0000,
FFF0,
0006,
000F,
FFFE,
0009,
0003,
FFFA,
0005,
0005,
FFFB,
0001,
0008,
FFFC,
0003,
0011,
FFF8,
FFFC,
FFFE,
FFF2,
FFF1,
0003,
0003,
FFFC,
FFFF,
0005,
0012,
000C,
FFFC,
0004,
000A,
FFFA,
FFFD,
000B,
FFF7,
0007,
FFEF,
0006,
FFFB,
0006,
0007,
000A,
FFFE,
0009,
0002,
FFFE,
0009,
0001,
FFF7,
FFF6,
0007,
0005,
0005,
0002,
FFFE,
FFFF,
0004,
FFFB,
FFF6,
FFF0,
0004,
FFFE,
FFFB,
0000,
FFFE,
FFFC,
0009,
FFFA,
FFFF,
FFFF,
FFFF,
0002,
FFFB,
0005,
0005,
0009,
FFFB,
FFEE,
FFF9,
0004,
0007,
0002,
FFFB,
FFFE,
0003,
000A,
FFED,
FFFB,
FFF8,
FFFD,
FFFB,
0003,
FFFB,
FFFC,
0003,
0001,
FFFB,
0000,
0001,
0001,
FFF9,
FFF9,
FFF7,
FFF7,
0015,
0006,
0006,
000A,
0001,
FFFC,
0000,
0001,
0005,
0006,
FFFD,
FFFA,
FFFD,
FFFE,
FFFE,
FFFD,
FFF8,
FFFF,
FFFA,
FFFA,
FFFA,
0000,
FFF7,
000F,
0000,
FFFD,
0007,
FFF6,
000B,
000B,
0007,
FFFA,
000C,
0006,
0001,
FFFF,
FFFD,
000B,
FFFE,
0004,
FFFA,
FFF9,
0006,
0005,
0012,
0003,
0004,
0008,
0007,
FFFD,
FFF8,
FFFC,
FFFD,
FFFD,
0002,
FFF3,
0004,
000A,
FFEE,
FFF0,
FFE1,
000F,
0001,
0000,
FFF8,
0002,
FFFE,
0001,
FFF1,
FFFA,
0005,
FFFF,
FFFE,
0000,
0007,
0012,
0005,
0009,
FFFD,
0000,
0021,
FFFD,
FFF3,
0004,
FFE7,
FFFF,
0009,
FFF4,
0002,
0006,
FFFD,
FFF1,
FFFF,
0000,
FFF9,
FFF8,
0006,
001C,
FFF9,
FFF8,
FFFE,
FFFA,
000A,
0002,
FFF4,
FFF8,
0007,
FFFC,
FFFD,
0006,
0002,
FFF9,
FFFB,
000B,
FFF6,
FFFF,
FFF1,
FFFF,
FFFF,
FFFE,
0007,
0000,
FFE3,
0001,
0002,
FFFE,
0003,
FFFC,
0003,
0003,
0008,
FFFF,
0007,
000A,
FFF7,
FFF5,
0002,
FFFC,
FFF6,
0008,
FFFB,
FFF4,
FFFB,
0001,
0004,
FFFB,
FFFC,
FFF5,
FFFF,
0000,
FFFE,
0006,
0002,
000A,
0002,
0003,
0003,
FFF1,
FFFF,
0005,
FFEA,
FFF9,
FFFC,
FFFE,
0004,
FFFD,
0004,
FFF2,
0021,
FFF8,
0006,
FFF9,
0003,
FFFE,
0000,
0000,
FFEE,
FFFF,
FFF4,
FFF6,
0000,
0005,
0000,
FFF7,
0002,
FFF6,
FFFF,
000B,
0005,
0011,
0013,
FFFF,
FFFF,
FFE5,
0005,
0000,
0001,
FFE7,
0009,
FFFE,
0008,
000B,
FFFB,
FFF1,
FFF7,
FFFC,
0015,
FFF6,
0008,
0005,
0004,
FFFA,
0002,
FFEE,
0002,
0010,
0004,
FFFB,
000F,
0008,
FFFC,
0000,
0002,
0001,
FFF5,
0004,
FFF5,
FFFB,
0002,
FFFD,
000C,
0006,
0005,
FFFC,
0003,
0000,
FFF7,
FFFF,
FFFA,
0002,
0001,
0008,
FFF6,
FFF9,
FFFD,
0000,
FFFD,
0005,
FFFF,
FFFC,
0000,
0008,
0003,
FFE7,
FFF3,
0004,
FFFE,
0006,
FFFF,
FFFE,
0002,
0005,
FFFA,
0008,
FFFE,
000B,
FFF1,
FFEB,
0006,
0006,
FFFE,
0003,
FFF9,
0008,
000C,
001D,
