-76
-142
-253
-67
-56
-44
-60
-289
-334
-34
-127
-207
-154
-584
52
-49
-43
-345
-45
-376
-65
-141
-421
-37
-57
-405
-60
-263
-438
-75
-3
-69
-35
48
-40
-394
-125
79
-55
172
-47
-361
-95
-54
-451
-363
-48
-56
-236
-408
-51
-66
-61
-40
-190
-55
-153
-57
-54
-46
-390
-369
-50
-50
-58
-417
-45
-425
-48
-36
-47
-269
-61
-55
-345
-75
-594
-41
-76
-50
56
-66
-363
-62
-70
-45
-342
-54
-449
-364
-366
-251
-156
-333
-216
-56
-38
-142
-49
-62
-50
-56
-100
56
-62
-49
-371
-32
-484
-40
-63
-50
-41
-361
-57
-76
-444
-64
-51
-46
-482
10
-62
-59
-326
-142
142
-162
-54
-408
-55
-46
-30
64
-418
-58
-380
-56
-103
-143
-51
-383
-473
-46
-43
-300
134
-61
-53
-242
-41
-44
-47
-114
-57
-55
-558
-278
42
-240
-172
108
-44
-170
-69
-50
-64
-541
-38
-66
-69
-74
-336
-24
-419
-70
-52
-363
-427
-415
-42
-47
-91
-59
-45
-48
-58
-62
-51
-51
-48
-62
-64
0
-417
-311
-429
-444
-110
-58
-416
-51
-50
-125
-458
-41
-166
85
-59
-46
-63
-50
-52
-46
-44
-36
-50
-50
-39
-475
-289
-166
-94
-53
-49
-393
-69
-433
-461
-144
-65
-166
-44
-69
-44
-58
-45
-65
-523
-41
-137
-304
-123
-33
-33
-44
-58
-69
-312
-34
-60
-29
-506
-407
-29
-46
-61
-54
-39
-318
-53
-65
-371
-47
-40
-79
-81
-50
-42
-59
-41
-81
80
-42
-36
-487
-41
-373
-439
-412
-240
-24
-150
-118
-348
-49
-50
140
-177
-80
-47
-63
-50
-58
-405
-43
-269
-54
-56
-74
48
-64
-129
-57
-239
-606
-278
-308
-45
-557
42
-231
-508
-439
-117
-104
-45
-44
-47
-57
-91
-52
-65
-44
-41
-379
-57
-399
-316
-42
-49
-47
-37
-302
-399
-56
-451
-60
-105
-126
-360
-52
-164
-109
-204
-60
-59
-197
-56
-483
-61
-193
-331
-49
-122
-367
-55
-45
-94
-154
-209
-90
-190
-99
-18
-256
-42
-255
-412
-63
-19
-323
-64
-38
-369
-218
-60
-336
-448
-43
-40
-387
-247
-51
-50
-61
114
4
-40
-39
-344
-45
-59
-41
-334
-342
-105
-45
-84
-337
-44
-46
-62
-125
-212
-40
-403
-60
-484
-137
-299
-71
-433
-49
-77
-443
-50
-71
-52
-47
-207
-332
-51
-462
-410
-329
-46
-171
91
-94
-49
-56
-49
-130
-53
-334
-50
-51
-250
-468
-38
-283
-357
-47
-45
-337
-74
-54
42
-712
-71
-53
-66
-328
-263
-94
-65
-336
-438
-38
-425
-322
-84
-5
-49
-51
-76
-42
-50
-89
-427
-342
-156
-359
-43
-127
-57
-291
-98
-46
-81
-72
35
-30
-127
-116
-44
-236
-380
-60
-51
-443
-51
-117
-53
-39
-130
-43
-60
-466
-148
58
-51
-47
-176
-413
-277
-300
-50
-308
-61
-68
-53
-55
-51
-55
-211
-49
-54
-389
-49
-50
-50
-38
-294
-170
-55
-145
-474
-75
-43
-128
-48
-38
-77
-43
-62
-82
-59
-55
-45
-378
-150
-54
-63
-326
-50
-50
-187
-61
-75
-51
-54
-357
-54
-37
-378
-52
-47
26
-43
-50
22
-35
-132
-57
-45
-42
-48
-57
-151
-334
-69
-481
-403
-486
-353
-449
-56
-343
-324
-172
-322
-39
-44
-46
-148
-251
-393
-43
-65
-34
-81
-59
-63
-383
-92
-40
-52
114
-142
-48
-288
-35
-443
-36
-368
-320
-81
-44
-459
-324
-345
-109
-77
-51
-42
-77
-66
-92
-55
-40
112
-356
-244
-205
-201
-43
-227
-419
-65
-43
-86
-134
-96
-46
-167
-42
-279
-51
58
-54
-51
-38
-311
-39
-441
-59
-118
-55
-469
-41
-232
-57
-451
-403
-152
-43
-65
-191
-48
-56
-502
-232
-58
-406
-56
-58
-38
-394
-338
-347
-77
-446
-54
-53
-376
-117
-298
-293
-58
-64
-40
-58
-389
-56
-190
-338
-80
-60
-90
-63
-48
-52
-391
-324
-276
-44
-362
-68
-320
-369
-383
-209
-44
51
-505
-421
-170
-62
-162
-338
-39
-68
-69
-61
-54
-621
-36
-292
-46
-47
-46
9
-360
-34
-42
-333
-404
79
-479
-247
-209
-59
-515
-60
-312
-434
-202
-387
-40
-40
-38
-4
-58
-68
-7
-58
-40
-68
-422
-45
-212
-54
-52
-74
-40
63
-70
-68
-74
-49
-64
-406
-51
-53
-140
-133
