-126
-46
-37
-53
-28
96
33
116
-8
-25
1
18
18
-1
74
-22
66
-48
-127
103
90
48
79
-65
106
51
31
40
-48
-57
144
-40
118
35
53
-4
76
-205
-27
-115
-12
-1579
-125
-134
9
75
110
-85
-79
-520
66
86
-114
63
-24
8
148
-28
57
-65
73
-42
26
-28
109
13
-14
-119
-214
-18
-111
-3
134
-74
42
77
16
16
58
16
474
-141
41
-13
153
-35
98
8
-61
1
-68
-78
69
38
140
-255
53
47
10
-15
-9
-54
91
-7
43
116
8
140
-29
-12
63
108
-42
-49
115
67
-4
-21
37
-604
219
-24
10
46
216
21
55
20
3
-14
55
20
73
-53
-37
-289
11
-35
66
50
-40
9
68
-222
55
100
-75
-189
658
-70
-200
32
54
98
-21
632
-17
66
1
-57
-40
-100
83
92
-231
-55
-23
17
-70
-28
-21
105
-5
-32
80
21
-104
-8
120
59
46
-15
88
23
-38
-82
14
-31
51
-4
-124
-36
